<s>
<pad>
</s>
<unk>
.
Ġthe
,
Ġto
Ġand
Ġof
Ġa
Ġin
-
Ġfor
Ġthat
Ġon
Ġis
âĢ
's
Ġwith
ĠThe
Ġwas
Ġ"
Ġat
Ġit
Ġas
Ġsaid
Ļ
Ġbe
s
Ġby
Ġfrom
Ġare
Ġhave
Ġhas
:
Ġ(
Ġhe
ĠI
Ġhis
Ġwill
Ġan
Ġthis
)
ĠâĢ
Ġnot
Ŀ
Ġyou
ľ
Ġtheir
Ġor
Ġthey
Ġwe
Ġbut
Ġwho
Ġmore
Ġhad
Ġbeen
Ġwere
Ġabout
,"
Ġwhich
Ġup
Ġits
Ġcan
Ġone
Ġout
Ġalso
Ġ$
Ġher
Ġall
Ġafter
."
/
Ġwould
't
Ġyear
Ġwhen
Ġfirst
Ġshe
Ġtwo
Ġover
Ġpeople
ĠA
Ġour
ĠIt
Ġtime
Ġthan
Ġinto
Ġthere
t
ĠHe
Ġnew
ĠâĢĶ
Ġlast
Ġjust
ĠIn
Ġother
Ġso
Ġwhat
I
Ġlike
a
Ġsome
S
Ã«
Ġthem
Ġyears
'
Ġdo
Ġyour
Ġ-
Ġ1
"
Ġif
Ġcould
?
Ġno
i
m
Ġget
ĠU
Ġnow
Ġhim
Ġback
ĠBut
ĠâĢĵ
Ġmy
Ġ'
Ġonly
Ġthree
;
Ġ2
The
1
Ġpercent
Ġagainst
Ġbefore
Ġcompany
o
ĠTrump
Ġhow
Ġbecause
Ġany
Ġmost
Ġbeing
Ġmake
Ġwhere
Ġduring
Ġthrough
Ġwhile
000
ĠThis
Ġmillion
ing
Ġ3
Ġmade
Ġwell
Ġ10
Ġdown
Ġoff
Ġsays
Ġme
ĠB
Ġgoing
Ġteam
ĠWe
Ġthose
Ġgovernment
Ġway
We
Ġmany
Ġthen
Ġwork
Ġtold
com
2
Ġgame
ĠAnd
in
year
Ġp
Ġvery
Ġday
Ġhome
Ġtake
Ġweek
Ġsince
ĠNew
Ġmay
Ġeven
Ġseason
Ġsee
Ġ2017
Ġstate
Ġ5
ed
Ġshould
Ġaround
Ġ2018
Ġsecond
Ġus
Ġstill
Ġmuch
Ġ4
Ġgood
Ġthink
%
ĠS
Ġthese
Ġmarket
ĠD
th
Ġgo
're
Ġsuch
Ġknow
Ġincluding
Ġdon
y
Ġnext
ĠP
Ġdid
Ġunder
Ġsay
en
ĠL
Ġbetween
Ġper
ĠK
ĠC
Ġ6
Ġworld
Ġpart
ĠN
Ġright
Ġwant
Ġfour
),
Ġhigh
Ġneed
re
e
It
Ġhelp
5
3
Ġcountry
ĠR
Ġpolice
A
Ġlong
ĠThey
Ġend
er
ĠT
ĠM
u
Ġboth
Ġhere
an
on
Ġ7
Ġde
ĠShe
Ġbusiness
Ġreport
j
ers
Ġreally
ĠPresident
ar
ĠG
ĠFriday
ĠF
Ġbest
Ġsame
Ġanother
Ġset
old
ĠThat
as
n
Ġcome
Ġfamily
Ġpublic
ĠFor
ĠAs
0
ĠH
Ġ8
Ġ20
Ġfive
es
ĠTuesday
Ġn
ĠThursday
Ġquarter
h
Ġtop
Ġgot
Ġlife
ĠMonday
Ġfound
Ġuse
ĠW
4
ĠWednesday
Ġown
Ġaccording
Ġplay
Ġshow
ĠSt
Ġman
Ġleft
ĠUnited
Ġ12
Ġplace
ĠIf
Ġlot
Ġformer
Ġ0
).
Ġsupport
ie
Ġbillion
Ġt
Ġshares
!
z
k
ĠState
Ġpoints
Ġgroup
Ġschool
Ġinformation
Ġ2016
al
r
Ġwin
Ġnews
Ġused
Ġput
Ġcity
ĠJ
ĠThere
Ġnumber
C
've
Ġeach
Ġtoo
Ġwon
ly
Ġmonth
is
Ġadded
Ġlook
Ġbetter
Ġevery
Ġ&
Ġdays
Ġ9
Ġtook
Ġnight
Ġe
Ġ11
os
Ġfew
or
ĠNorth
ĠYou
Ġthird
Ġgreat
Ġcalled
ĠOn
Ġpast
Ġcame
Ġmonths
ĠSaturday
Ġ15
Ġbig
ĠE
ĠUS
Ġthings
ĠO
Ġd
Ġstart
B
Ġstock
Ġ30
Ġwomen
ĠSouth
ĠMay
Ġnever
Ġpresident
ĠSunday
Ġwithout
man
8
Ġdidn
Ġlocal
6
Ġsomething
Ġcase
ĠAll
it
7
ĠSo
Ġchildren
Ġaway
Ġlittle
Ġsix
ĠCity
ĠCounty
Ġdata
at
Ġalready
d
Ġmoney
Ġearly
Ġacross
Ġexpected
Ġrun
Ġlater
am
Ġprice
Ġgames
ĠMr
b
Ġmight
Ġdifferent
Ġreported
Ġdeal
Ġmedia
Ġgrowth
Ġcommunity
ĠChina
'm
c
Ġwent
ĠNo
Ġable
Ġmaking
Ġarea
Ġfar
Ġstatement
ĠHouse
Ġworking
M
Ġk
Ġseen
Ġcompanies
Ġtoday
Ġmembers
Ġuntil
Ġfull
Ġagain
Ġhalf
Ġshare
le
Ġalways
Ġcourt
l
and
Ġchange
Ġfind
9
Ġsystem
ĠV
ĠYork
ĠAmerican
Ġhead
Ġplayers
Ġdoes
Ġhealth
Ġm
Ġpower
Ġpoint
Ġhit
Ġ.
Ġ--
Ġfree
.,
Ġlead
Ġseveral
Ġrecent
Ġcall
N
Ġlaw
Ġkeep
Ġopen
ĠNews
Ġgive
ia
ĠMarch
D
ĠNational
ĠAt
Ġtimes
Ġfuture
R
Ġ14
ĠJune
Ġofficials
Ġ18
Ġimportant
f
Ġfinal
Ġ13
ĠOne
P
Ġfollowing
Ġcar
Ġleast
Ġwater
Ġevent
Ġline
Ġmove
Ġservices
Ġhaving
ĠWhen
Ġstudents
ĠPolice
el
Ġam
ĠZ
Ġside
Ġstory
Ġdue
Ġmeeting
K
Ġmust
ĠStates
Ġlikely
G
Ġcontinue
Ġago
Ġparty
Ġmajor
Ġindustry
Ġless
30
Ġun
Ġhard
Ġservice
Ġ16
Ġlooking
Ġheld
ve
Ġwhether
ĠJuly
Ġtaken
Ġalong
Ġasked
Ġstarted
Ġbecome
Ġforward
Ġresearch
Ġoffice
Ġpolitical
to
Ġtogether
Ġgetting
Ġplan
Ġ25
T
Ġamong
Ġcoming
Ġdecision
Ġvideo
Ġ2015
g
ĠAfter
Ġsecurity
L
Ġcare
Ġgiven
Ġavailable
âĢĶ
Ġs
ĠWest
'll
Ġpay
Ġnear
Ġsaying
Ġannounced
Ġprogram
ĠApril
Ġreal
ĠUniversity
ĠWith
AP
Ġsocial
Ġclose
et
Ġcurrent
Ġwhy
F
ĠTo
ĠTwitter
Ġthough
Ġ17
Ġtaking
ĠInc
Ġmen
w
Ġcomes
ley
Ġdoing
Ġprocess
ĠJohn
ch
00
Ġfinancial
Ġlow
Ġenough
ĠWhile
Ġfurther
Ġpost
Ġfeel
st
Ġperson
ĠFacebook
ĠWorld
Ġwithin
ad
Ġdone
the
Ġlate
Ġtax
Ġdoesn
Ġthing
Ġnational
Ġjob
Ġusing
ĠHowever
ic
Ġcampaign
Ġrecord
Ġbehind
://
ĠDepartment
p
Ġothers
ĠJanuary
Ġorder
Ġ[
Ġsales
Ġyet
Ä
Ġsmall
Ġseries
Ġface
ĠWhat
Ġ50
Ġever
Ġearlier
Ġlove
up
Ġrights
ĠAn
ist
Ġmorning
ĠWashington
Ġyoung
Ġlatest
ĠIndia
Ġtrying
Ġfire
Ġled
Ġstrong
Ġreturn
Ġlevel
O
Ġaverage
Ġperiod
Ġexperience
ak
Ġpossible
Ġbelieve
Ġinclude
Ġoil
Ġrecently
Ġonce
Ġknown
Ġlost
Ġsure
us
Ġweeks
Ġfood
Ġreports
Ġrating
ĠMinister
Ġwoman
Ġprovide
Ġproject
Ġissue
Ġlive
10
Ġclear
he
Ġcost
Ġplayed
Ġreleased
Ġcoach
v
Ġ24
Ġseven
Ġplans
Ġdevelopment
ur
ĺ
Ġincrease
This
Ġpolicy
Ġcent
Ġbased
E
il
ĠDecember
Ġglobal
Ġtrade
Ġhours
Ġhigher
Ġgoal
H
ĠAl
Ġ100
Ġminutes
Ġelection
ĠAmerica
Ġrate
ĠCh
Ġ21
...
ĠWhite
Ġdirector
Ġposition
Ġshot
Ġlarge
Ġc
Ġb
]
Ġissues
Ġdeath
Ġbuilding
Ġtotal
Ġoften
Ġv
Ġcountries
Ġhistory
Ġoutside
Ġfederal
Ġ19
Ġfact
ĠHigh
Ġcareer
im
Ġinternational
ĠNovember
Ġfront
Ġkind
Ġkey
ra
ĠSan
Ġshort
Ġname
ĠAccording
Ġcourse
Ġre
Ġwanted
W
ĠSeptember
Ġinterest
Ġrole
Ġresults
Ġeconomic
Ġ2014
Ġchance
ĠOctober
Ġspecial
Ġofficial
Ġneeds
um
Ġl
Ġproducts
Ġnon
Ġ@
ĠBank
Ġahead
Ġhouse
U
Ġboard
Ġold
Ġsaw
Ġlower
ĠEuropean
Ġcontrol
ĠRussia
Ġeight
Ġrelease
Ġpotential
Ġthought
Ġinvestigation
Ġonline
based
Ġtechnology
ĠDonald
id
Ġbody
Ġrisk
ian
Ġcapital
Ġstaff
Ġaction
ĠLeague
Ġplaying
Ġmakes
Ġalmost
Ġperformance
Ġ22
Ġg
Ġfilm
Ġnearly
ĠCenter
Ġvisit
ĠGroup
Ġbank
Ġbit
Ġreceived
ĠAugust
Ġmilitary
ĠHis
ine
Ġchief
ĠSchool
Ġbring
ĠCourt
Ġ(@
Ġmeans
ĠSh
Ġfans
Ġse
Ġ40
20
".
V
Ġcut
Ġkilled
Ġ#
Ġprices
Ġgave
ĠStreet
ir
ĠY
Ġcurrently
Ġf
ay
ne
te
Ġtry
ĠPark
ĥ
J
Ġquestion
Ġhand
Ġeconomy
Ġinvestors
able
Ġplayer
ĠBy
ĠDavid
Ġloss
ab
Ġbelow
Ġwrote
co
ate
Ġrunning
un
Ġbegan
Ġsingle
Ġfield
Ġ23
Ġleader
Ġw
ĠCalifornia
Ġfourth
Ġactually
Ġlist
ll
Ġcouple
Ġstudy
Ġteams
He
ah
ĠCanada
Ġla
Ġresult
Ġaccess
Ġvote
ĠMore
ĠFebruary
Ġrevenue
Ġoffer
Ġlet
ier
Ġbuy
Ġattack
Ġblack
Ġr
Ġareas
Ġstop
Ġimpact
Ġmatch
Ġinvestment
Ġcustomers
Ġleaders
ies
Ġmember
Ġchild
Ġroad
ul
Ġvalue
Ġshows
ĠDr
ĠDe
ant
ĠLondon
Ġroom
Ġmusic
Ġproduction
Ġanything
Ġfirm
Ġbiggest
Ġair
Ġproblem
Ġgeneral
Ġwasn
Ġi
Ġprivate
Ġespecially
Ġadministration
Ġadditional
ĠCo
Ġopportunity
Ġhold
&
Ġmatter
Ġsenior
Ġclub
Ġsomeone
ĠÃ
ĠEast
Ġ2019
.'
Ġneeded
ĠJames
time
Ġhowever
Ġeverything
Ġeveryone
Ġdied
Ġinvolved
Ġfriends
Ġisn
Ġworth
ik
ĠCup
Ġshowed
There
Ġ28
Ġmeet
Ġ26
Ġ27
Y
Ġregion
ĠPress
ĠNow
Ġson
Ġspace
Ġleading
Ġstates
Ġweekend
ĠÂ£
Ġmother
Ġprevious
ĠUK
ĠMichael
Ġleave
est
em
Ġz
ĠSome
ors
out
15
Ġwar
Ġwebsite
Ġstar
X
ro
Ġtarget
Ġhimself
Ġturn
ĠEurope
Ġworked
Ġenergy
Ġscored
Ġ*
Ġsoon
Ġball
ĠTV
Ġannual
Ġ2013
Ġrace
ĠInternational
'd
ĠMarket
Ġconference
io
Ġo
Ġchanges
ig
Ġofficers
Ġinside
Ġform
Ġpublished
Ġphone
Ġco
Ġlegal
Ġexecutive
Ġfight
ings
Ġhope
Ġsummer
Ġofficer
Ġfootball
Ġproperty
@
Ġbook
Ġparents
Ġcosts
ac
Ġmanager
Ġcreate
Ġage
Ġemail
Ġmarkets
Ġmain
Ġhuman
Ġsent
Ġmanagement
ĠDay
ton
Ġcash
Ġfocus
Ġexpect
Ġtraining
Ġbecame
Ġwhose
Ġevents
Ġround
ĠLe
Ġfell
Ġabove
Ġanalysts
Ġtalk
Ġsituation
ri
ated
ke
Ġwants
ag
Ġlives
om
Ġal
Ġdemand
Ġsafety
Ġrest
ĠCouncil
Ġpersonal
Ġsite
ĠRussian
Ġmid
Ġnothing
Ġwhole
Ġbill
Ġsold
ĠBritish
se
Ġremain
12
Ġforeign
Ġshooting
Ġstay
50
ang
Ġhospital
Ġbad
Ġaddress
ĠKorea
Ġhappened
Ġcharges
Ġwhite
Ġ31
If
Ġearnings
Ġbreak
Ġlight
Ġterms
ĠChinese
ĠSenate
ana
Ġidea
ap
of
Ġnine
Ġcompared
Ġbuild
ard
In
Ġsimilar
Ġgas
Ġvictory
Ġ2012
Ġdebt
ĠMar
Ġarrested
Ġcomment
Ġincreased
Ġmedical
Ġ29
ĠJan
Ġgroups
Ġdespite
Ġfall
Ġtell
Ġworkers
Ġtown
Ã©
Ġwife
Ġquestions
Ġcontinued
Ġheart
Ġmet
Ġbrought
Ġhelped
ĠCongress
Ġstep
Ġfather
Ġmoment
Ġproduct
Ġprobably
Ġlargest
Ġvehicle
ĠEngland
Ġallow
Ġstarting
Ġkids
Ġincident
Ġnet
Ġrates
ĠRead
Ġpressure
Ġincluded
Ġread
Ġissued
ol
Ġeither
Ġefforts
Ġincludes
ĠRepublican
ish
âĢ¦
Ġgoals
aj
Ġen
x
Ġraised
au
Ġlonger
ut
Ġwatch
ĠTexas
You
Ġrange
nd
Ġfunds
Ġremains
ĠMark
Ġ60
Ġque
sh
Ġinterview
Ġrather
Ġresidents
Ġgrowing
Ġpre
Ġpaid
Ġcases
ĠReuters
Ġdifficult
Ġsign
ĠGoogle
Ġhttps
ĠPaul
Ġliving
day
ĠQ
iz
ĠRed
Ġland
They
ĠRoad
_
ĠThese
Ġview
Ġagency
Ġreason
Ġallowed
ĠAustralia
az
ĠRe
Ġturned
11
Ġnation
Ġready
Ġpress
Ġbudget
Ġdaily
ĠChief
Ġfamilies
Ġsignificant
ĠFirst
Ġthemselves
Ġj
Ġruns
Ġaccused
Ġtakes
Ġspent
Ġvia
ot
ina
25
land
Ġexample
Ġauthorities
Ġdate
Ġended
all
Reuters
Ġbusinesses
ans
Ġdetails
Ġground
Ġpretty
ĠApple
ation
ĠSmith
ĠCompany
ĠFlorida
Ġdrug
Ġresponse
one
Ġeducation
Ġmean
Ġleague
Ġanyone
Ġminister
Ġtitle
Ġadding
Ġproblems
Ġopening
Ġconditions
Ġred
Ġdecided
Å
Ġposted
term
Ġamount
ĠEU
Ġsuccess
Ġevidence
ĠObama
Ġaddition
Ġprovided
ĠLos
Ġagreement
Ġstage
ens
Ġrelationship
ĠGeneral
Ġsector
Ġstudent
ating
Ġtest
",
Ġwinning
Ġfelt
Ġsource
Z
Ġseems
Ġcause
Ġschools
Ġdrive
Ġensure
Ġhuge
ĠMy
ĠHealth
Ġscene
Ġgiving
Ġcenter
Ġpositive
Ġyards
Ġjobs
Ġaccount
Ġheard
Ġquality
Ġways
Ġimmediately
Ġemployees
are
Ġpass
ĠCEO
Ġreceive
Ġlooks
ĠAfrica
Ġthroughout
led
Ġrelated
Ġsell
ĠUnion
ĠPhoto
ter
Ġquickly
ĠHow
Ġvarious
Ġreach
Ġpick
Ġcharged
Ġquite
ent
q
ins
Ġphoto
Ġunderstand
ĠâĢ¢
Ġreached
Ġtrack
uk
Ġeffort
ville
Ġcentral
Ġdaughter
Ġcontract
Ġinjury
Ġopened
Ġ($
Ġstraight
17
Ġcredit
ĠIndian
Ġsexual
Ġworks
Ġeasy
18
Ġclosed
Ġh
Ġhappen
Ġforce
ler
Ġhappy
Ġshared
Ġoverall
Ġmoving
á
Ġprojects
ĠBlack
Ġconcerns
Ġclass
Ġtried
Ġappeared
Ġcontent
ĠDistrict
Ġterm
Ġinstead
ĠOffice
Ġcontinues
Ġlevels
Ġafternoon
Ġfund
Ġsale
Ġdriver
Ġask
Ġcannot
ner
end
ĠHere
field
Ġstore
www
Ġcertain
Ġself
Ġdollar
ĠHer
Ġpopular
Ġfollow
Ġspending
by
Ġmoved
Ġgoes
Ġcreated
Ġstand
Ġoperations
Ġlooked
Ġtreatment
ov
Ġdistrict
Ġsigned
Ġhands
Ġmodel
ĠAngeles
Ġy
Ġborder
Ġincome
ĠLast
Ġcharge
Ġdriving
ĠJapan
Ġrise
Ġtalks
Ġfollowed
Ġpreviously
Ġusers
Ġfunding
ĠJohnson
Ġ
ou
ai
Ġnamed
Ġfriend
ĠNov
Ġdefense
ĠBritain
Ġentire
Ġtrading
Ġfailed
ĠEl
Ġclaims
Ġcomments
Ġbeat
ib
Ġbasis
ĠJones
Ġpresent
ĠBe
Ġdouble
Ġrose
ite
Ġability
Ġoriginal
Ġdead
ĠCommission
ĠMe
Ġcompetition
Ġ2011
Ġknew
Ġmaterial
av
ĠFrance
Ġscore
Ġsense
Ġserious
Ġconfirmed
Ġanti
Ġviolence
Ġimprove
son
Ã³
ĠAP
Ġsh
Ġhost
ĠMike
Ġpatients
ĠNFL
Ġcrisis
Ġrevealed
ach
ĠPrime
Ġbuilt
ĠNot
Ġrules
Ġelse
Ġdepartment
Ġitself
ise
500
Ġcomplete
ion
Ġtrial
ĠBay
ĠDec
Ġattention
Ġtravel
ĠCentral
ry
Ġagreed
Ġmind
ĠMc
Ġ70
Ġcontact
ari
ĠTimes
Ġspot
ĠFrench
Ġgets
op
Ġbrand
Ġcalls
Ġbanks
Ġdesign
Ġsafe
Ġoffers
Ġpractice
ĠOf
Ã¡
ling
Ġtrue
off
Ġnumbers
Ġfun
Ġlearn
Ġmultiple
ĠIs
res
als
Ġcommon
ized
Ġchallenge
Ġcommittee
ĠOur
Ġbase
ani
ĠAssociation
ung
Ġnetwork
ĠBrown
Ġapproach
16
Ġfinished
Ġreview
Ġrequired
Ġapp
ĠMan
ĠâĢ¦
twitter
ĠDemocratic
13
Ġevening
ĠTom
Ã¤
ĠAssociated
ĠCanadian
Ġcollege
Ġspokesman
Ġarticle
Ġtowards
ĠChicago
Ġmovie
14
ity
Ġforces
ĠChris
ĠDemocrats
Ġfeatures
Ġhearing
ĠX
ĠAlso
Ġmessage
age
Ġnoted
ĠSuper
Ġthousands
aw
ĠBill
ĠAr
ĠLa
ip
Ġ/
ĠDuring
Ġnote
.)
Ġwrong
if
Ġpassed
ĠTwo
Ġdie
,'
ĠDon
ĠGermany
Ġletter
Ġdescribed
ĠIran
ĠWilliams
Ġparticularly
Ġadd
Ġconversation
ĠSe
Ġhighest
be
Ġhomes
Ġsports
Ġgone
ĠAd
Ġel
Ġopportunities
Ġwords
Ġleaving
ĠChristmas
As
ĠGovernment
Ġsimply
Ġhusband
ĠResearch
ĠMexico
ates
ale
ĠGreen
$
od
ĠHall
Ġnatural
Ġoperating
les
ations
ĠKim
Ġgold
ok
Ġprovides
(
ell
Ġbegin
ĠParty
back
ĠAmazon
19
Ġmajority
ĠEven
Ġcheck
Ġweather
Ġorganization
Ġstories
ĠCar
Ġforced
ĠGeorge
Ġwalk
ong
Ġfiled
ĠJustice
Ġlaunched
Ġoffered
Ġwww
Ġconstruction
ĠBen
Ġserved
Ġ...
Ġparts
Ġcancer
Ġguys
Reporting
ash
less
Ġleadership
ĠCommittee
Ġregular
Ġcouncil
Ġcars
ĠDirector
Ġjudge
Ġvictims
ĠDaily
Ġkept
Ġeffect
Ġbeyond
pm
Ġtalking
Ġconsidered
ore
ĠAdvertisement
Ġst
ED
Ġmiddle
Ġraise
we
Ġclaimed
ino
Ġalleged
ĠPro
ĠScott
ĠOct
Ġconsider
ĠShare
Ġtraffic
ĠAfrican
Ġcouldn
Ġtoward
Ġsearch
But
Ġlaunch
Ġinjured
That
Ġalthough
Ġactivities
Ġchanged
Ġsources
Ġmissing
Ġu
Ġ35
Ġcover
ised
Ġ|
ow
ES
Ġdecades
ich
Ġcaused
Ġelections
ane
IS
Ġfeet
ĠBar
Ġversion
Ġgrow
Ġvehicles
Ġoptions
Ġindividual
Ġenvironment
ĠRobert
ĠValley
ĠFrom
per
ara
Ġsystems
Ġprotect
ĠKing
Ġinjuries
Ġfinally
Ġnuclear
40
Ġratio
Ġgun
ĠPakistan
ĠManagement
ĠAir
ce
Ġopposition
ment
ick
Ġpro
Ġact
Ġplatform
Ġlack
Ġpair
Ġ500
Ġcalling
ary
Ġprograms
Ġscheduled
Ġfast
Ġjoined
ĠWar
ĠEditing
ĠSince
ĠRyan
ĠMac
ĠBig
ĠLake
Ġdigital
When
ue
Ġassets
Ġseeing
ĠAct
Ġpartner
ĠBoard
Ġbeginning
Ġsupply
Ġmiles
Ġprison
ons
ĠAmericans
ub
ĠOr
me
Ġbenefits
Ġbenefit
Ġmeasures
Ġhear
Ġparties
Ġsuccessful
ĠJust
Ġvictim
Ġblock
Ġlimited
Ġtrip
ĠPeople
Ġserve
Ġart
ism
Ġwide
ĠSch
Ġ80
ĠThomas
Ġ90
Ġstocks
Ġgirl
ĠAsia
Ġseeking
Ġcertainly
ĠServices
ĠCollege
Ġcommunities
Ġextra
Ġ2010
ness
Ġholding
ous
Ġtough
ade
Ġmobile
Ġowns
ĠDo
ĠFire
Ġspoke
Ġreturned
Ġsize
Ġcriminal
ĠInstagram
Ġoffering
ĠGod
ĠService
Ġpage
her
Ġdeep
wood
Ġcrime
ĠSports
ile
ĠGlobal
Ġproposed
ain
Ġsession
ĠFederal
ĠSyria
Ġch
Ġthreat
Ġallegations
ĠRepublicans
ĠGerman
Ġstrategy
Ġcommercial
ING
ĠSecretary
Q
Ġreporters
100
ĠCapital
ĠBoth
ĠPost
ĠIsrael
Ġsave
ts
ill
Ġdrop
Ġreserved
ĠMany
Ġavoid
Ġ200
iv
Ġdamage
Ġcondition
Ġdropped
Ġdoor
Ġplanning
ire
Ġcard
Ġdesigned
Ġreduce
AN
ĠUn
ford
ĠThen
Ġpic
ĠCopyright
Ġrain
ĠMartin
Ġdomestic
45
ge
Ġmurder
Ġspeech
line
Ġhelping
Ġplanned
Ġfeature
ud
Ġtype
ham
ĠPublic
ja
Ġinsurance
Ġattacks
ĠCorp
Ġforecast
Ġresources
ma
?"
ĠAm
ĠSept
Ġpush
Ġattorney
23
Ġemergency
Ġwinner
Ġblood
Ġnorth
ĠFeb
Ġbaby
Ġfloor
Ġspend
Ġex
Ġdollars
Ġunit
ĠHill
Ġder
ĠAbout
Ġalone
ization
Ġpresidential
Ġactivity
ĠTHE
ee
ber
ĠOther
Ġowner
Ġhour
Ġcities
Ġanswer
ide
Ġfully
ek
ists
Ġcoverage
Ġvs
Ġfigure
Ġpopulation
org
Ġsnow
Ġbecoming
ĠSam
ĠCarolina
Ġjoin
Ġprofit
Ġitems
Ġindex
Ġanalysis
Ġtournament
Ġstake
Ġperfect
way
Ġband
Ġgirls
Ġoption
Ġplays
oc
Ġproviding
ÃŃ
24
Ġwouldn
Ġones
Ġdeclined
Ġwritten
Ġvoters
Ġcandidate
Ġsuspect
Ġpolicies
Ġpeace
ast
Ġparticular
for
Ġhopes
Ġstation
ĠMost
Ġspeak
ĠRiver
Ġasking
Ġstatements
Ġfifth
ha
ĠNigeria
af
Ġexplained
Ġbar
Ġhousing
ĠSanta
Ġidentified
Ġsimple
Ġcritical
ĠClub
ĠSecurity
ĠLike
Ġstarts
art
Ġstreet
Ġreality
Ġheavy
Ġprogress
Ġshowing
Ġchallenges
Ġban
Ġcommitted
35
»
Ġdirectly
Ġaren
Ġclaim
ĠWestern
ind
Ġgives
ĠSaudi
Ġchoice
ĠTh
Ġapproved
Ġlocated
Ġarrived
22
Ġcaught
Ġprofessional
Ġmissed
Ġculture
ĠYear
ĠOhio
ĠLtd
ĠAnother
Ġseem
Ġbelieves
Ġbelieved
Ġcharacter
ĠAug
red
Ġfine
Ġprior
Ġthinking
Ġhttp
Ġ+
Ġzone
Ġputting
Ġcrash
ĠAustralian
ĠAb
Ġfocused
ĠREUTERS
ĠFox
ĠSp
Ġtraditional
Ġanalyst
Ġwait
IT
Ġrequest
ru
ians
ize
Ġfinish
Ġlaws
Ġran
ER
Ġsouth
Ġspeed
Ġmovement
Ġassault
Ġexchange
Ġappear
ĠSun
Ġle
Ġmaybe
Ġlosing
Ġsubject
ive
mer
ĠBusiness
ĠBl
Ġappears
Ġadvantage
ĠLee
ada
ĠUnder
Ġprevent
Ġrespect
Ġsex
Ġcentre
ĠJoe
ado
Ġtable
Ġequipment
Ġfair
Ġtour
Ġ32
ĠFinancial
Ġcounty
Ġdevices
Ġcustomer
Ġinfrastructure
Ġexpectations
Ġfacing
Ġupon
Ġcross
ĠOpen
AL
Ġquick
Ġattempt
Ġcompleted
Ġfacility
Ġconfidence
ĠSupreme
Ġpiece
our
Ġplaces
Ġsometimes
Ġpoor
Ġstorm
Ġhot
Ġaffected
na
Ġabuse
ĠMs
Ġword
over
Ġbrother
Ġnecessary
Ġeventually
ĠStar
Ġsend
Ġboy
ĠRs
Ġremember
21
Ġclimate
Ġcapacity
Ġresponsible
ĠMatt
month
Ġsuffered
%.
og
ĠPeter
Ġ,
Ġfeeling
ze
Ġbuying
oy
ij
Ġbought
Ġactions
Ġowned
Ġ___
Ġphysical
Ġspecific
Ġbattle
ĠEnergy
Ġpicture
Ġactive
Ġindividuals
Ġguy
Ġregional
Ġbond
ows
ĠToronto
Ġrule
Ġdevelop
Ġcrowd
Ġguilty
Ġfemale
Ġselling
ĠFollow
Ġmyself
ata
Ġdevice
Ġreasons
Ġrecords
Ġfighting
ON
ities
ĠHome
Ġstatus
Ġplant
Ġdrugs
ĠChurch
Ġcompletely
Ġdisease
Ġhighly
ĠParis
Ġdecade
Ġowners
Ġwall
Ġcamp
ĠSteve
Ġreporting
Ġearned
ĠImages
Ġexisting
ĠSen
Ġconcern
Ġhundreds
Ġsong
Ġknows
Ġunique
Ġlose
ĠKh
Ġapproximately
Ġhaven
Ġpark
Ġindependent
ĠAlthough
ĠAndrew
Ġpaper
Ġdeveloped
Ġrising
Ġdirect
Ġpurchase
Ġexactly
Ġq
Ġmassive
Ġbox
Ġchampion
ĠClinton
Ġvoice
Ġarrest
ĠKorean
Ġlearning
ĠVirginia
Ġsa
Ġpar
Ġchairman
Ġagencies
Ġhealthy
ĠThose
Ġpowerful
Ġ45
Ġdifference
ĠJackson
Ġenforcement
Ġdividend
qu
Ġenjoy
Ġruling
Ġongoing
Ġsoftware
ks
Ġlocation
Ġmostly
Ġcandidates
men
Ġbroke
What
ĠBr
Ġ2008
Ġconsumer
Ġdiscuss
Ġdi
Ġprimary
ĠEn
Ġgreen
Ġconcerned
Ġimage
ĠPremier
ĠMeanwhile
Ġfired
ĠBoston
ann
Ġcamera
Ġtraded
Ġhasn
Ġexcited
Ġincreasing
ĠDespite
Ġcitizens
Ġeuro
Ġreportedly
Ġminute
ĠWill
ĠLLC
Ġsp
ĠMichigan
Ġstopped
Ġeye
Ġdenied
Ġmodern
ĠWall
Ġdefinitely
point
Ġlines
Ġpolitics
Ġhotel
Ġretail
Ġstated
ĠOver
Ġgrew
Ġbroadcast
Ġlegislation
Ġfresh
Ġbid
Ġmanaged
Ġsociety
Ġscoring
ĠGet
Ġintelligence
Ġholiday
Ġgovernor
Ġestimated
Ġexperts
ĠJeff
Ġstruck
Ġhits
Ġcarry
Ġplaced
Ġstores
Ġexpressed
Ġvalued
Ġad
Ġtwice
ala
Ġdisplay
Ġusually
Ġresponded
Ġdog
AS
ĠFed
Ġ2009
Ġdocuments
Ġnormal
Ġtrain
Ġfl
Ġshown
ĠEd
Ġsort
Ġallegedly
Ġshots
ka
Ġaccounts
Ġyesterday
Ġcreating
Ġchurch
Ġbus
Ġaward
Ġequity
Ġphotos
Ġ33
Ġfiscal
je
Ġconsumers
ĠManchester
no
ĠKevin
Ġgain
Ġcorporate
Ġcivil
ĠMiddle
ally
Ġsound
ĠEnglish
IC
Ġwinds
Ġworst
ĠGrand
Ġeffective
ĠIsland
Ġdrivers
Ġfan
pe
Ġsides
ĠGo
Ġclean
âĢĵ
Ġtelevision
ĠJr
Ġallows
My
Ġgreater
ance
Ġdecisions
Ġrestaurant
ĠHospital
ĠTr
Ġbalance
Ġmph
Ġkeeping
Ġseconds
Ġweapons
ert
Ġpain
ass
Ġsteps
ger
ĠBrexit
Ġremaining
Ġbringing
ure
Ġweight
And
Ġwriting
Photo
ĠChristian
ob
Ġsport
Ġfigures
Ġtrust
Ġskills
Ġseat
Ġfaces
ck
Ġborn
Ġsuper
Ġfuel
Ġdel
Ġmeant
ica
Ġjustice
Ġspring
Ġkilling
Ġnegative
ĠRichard
Ġund
Ġfactors
Ġsigns
Ġlearned
ĠGame
Ġaudience
Ġdeliver
Ġillegal
Ġblue
Ġscreen
Ġremained
Ġannouncement
IN
Ġwaiting
Ġthanks
Ġimmigration
ĠFBI
Ġwarned
Ġmeasure
Ġdraw
Ġpositions
Ġdebut
ĠMedia
Ġallowing
air
hen
Ġmark
ys
Ġprepared
ĠVegas
ep
ice
2018
Ġdefensive
60
ĠBeach
Ġpulled
£
Ġlawyer
Ġcast
Ġsolution
Ġeyes
Ġmarketing
ĠFoundation
Ġrisks
ĠToday
za
Ġdraft
Ġice
26
ĠHar
ĠExecutive
Ġtruck
ions
ĠYour
ĠIreland
ĠJim
Ġha
Ġfear
Ġ36
UR
ĠFord
Ġwatching
ien
Ġstyle
ĠGood
Ġwearing
ĠHouston
Ġonto
Ġboost
Ġapplication
ĠDan
Ġspread
ĠDavis
Ġstrike
els
Ġwind
Ġinterested
Ġguard
Ġmission
Ġyourself
Ġoperation
Ġlarger
She
Ġseasons
28
27
Ġrespond
ci
ĠCentre
Our
Ġnames
Ġflight
Ġquarterback
Ġstandard
so
Ġsuggested
ĠMal
Ġolder
ini
Ġperhaps
ont
ĠInstitute
Ġmillions
Ġmental
ÃĤ
ga
Ġclients
Ġplease
Ġloan
Ġaware
ft
int
75
05
AY
ĠOut
Ġhair
ied
Ġseemed
ene
ty
NYSE
Ġoffensive
Ġtaxes
Ġinitial
ren
Ġseparate
la
ĠMiami
AC
Ġclearly
Ġfit
ĠCoast
Ġfirms
Ġpartners
Ġupcoming
Ġcold
Ġproposal
AT
Ġshut
ĠCommunity
Ġnature
ĠSal
Ġbottom
ting
ĠClick
Ġnice
ets
Ġhurt
itt
ama
Ġcarried
ĠCon
rd
Ġestate
ĠLas
ĠLaw
ng
Ġprotection
Ġproduce
Ġcurrency
Ġhappens
ĠPer
ney
ĠLong
Ġfellow
Ġcuts
Ġreading
ano
Ġproud
ost
ĠUN
ĠArizona
AD
Ġhelps
Ġwinter
Ġfinding
ĠGold
att
ĠWhy
Ġbasketball
lin
ĠCan
ĠBowl
ial
ĠAlex
200
AM
Ġpresence
Ġproduced
Ġdeveloping
Ġregarding
Ġdebate
Ġvice
ĠItaly
Ġsu
its
ator
Ġ34
Ġcomplex
Ġpresented
Ġresearchers
Ġslow
ya
Ġsanctions
Ġloved
Ġseek
Ġresponsibility
Ġadmitted
Ġalbum
Ġsolutions
Ġfacilities
ett
ĠGu
ĠWell
Ġlawmakers
Ġmiss
ful
ĠNick
'.
Ġfeels
Ġprime
Ġknowledge
Ġdeals
ĠTaylor
Ġsurvey
ĠFrancisco
Ġjoint
Ġwhom
Ġsit
01
Ġtr
Ġorganizations
ĠAvenue
ĠTheir
ĠTim
Ġrally
game
Ġbigger
Ġlawsuit
Ġrecorded
Ġfavorite
yard
Ġtransaction
Ġqu
oh
Ġinteresting
Ġinflation
ath
Ġstuff
Ġindustrial
ico
TS
Ġspeaking
Ġlosses
ID
ĠStadium
Ġstars
ĠWomen
ĠBlue
Ġwins
Ġdes
Ġcompetitive
ters
Ġpounds
Ġdirection
Ġinnings
ĠBest
Ġactor
Ġdangerous
Ġrequire
Ġplus
Ġsolid
Ġgeneration
Ġstrength
ĠMary
For
Ġplenty
ĠTeam
Ġinfluence
Ġfaced
Ġes
ĠIslamic
let
ĠDevelopment
Ġpath
Ġyouth
Ġcommitment
Ġbeautiful
ĠJack
ort
Ġten
Ġattend
ars
Ã³n
Ġviews
Ġeuros
Ġauthor
Ġcore
Ġsupporters
ĠiPhone
Ġfashion
Ġsmaller
Ġelected
Ġuniversity
Ġpicked
wa
Ġordered
ĠSc
ĠÅ
Ġlargely
+
ĠAttorney
Ġpaying
AR
Ġconnection
Ġsetting
Ġna
ĠRock
Ġrecovery
ew
Ġserving
Ġsurprise
Ġoccurred
Ġdivision
Ġtelling
Ġmargin
Ġ2020
Ġsister
ĠNBA
Ġvoted
Ġcon
By
Ġ49
Ġfoot
Ã¼
ĠTurkey
Ġamazing
Ġcombined
Ġappearance
Ġeasily
DAY
Ġnotes
ĠStart
Ġlanguage
Ġextremely
Ġcloudy
ĠLet
Ġdelivered
Ġimproved
Ġcollection
ĠPM
Ġestimates
Ġboys
izing
Ġtext
Ġcloser
Ġprotest
Ġprovince
Ġshop
Ġsmart
de
ĠSheriff
EN
Ġcorner
Ġpanel
Ġbooks
Ġsupported
Ġmentioned
ver
ĠMinistry
ĠPrince
ĠUSA
Ġreceiving
Ġchoose
ĠIN
ĠSpain
Ġsection
Ġconsidering
ĠCor
Ġwish
Ġwelcome
ĠConference
ere
ĠOfficer
Ġhoping
Ġportfolio
Ġstandards
Ġgrand
ĠReal
Ġsecure
ĠCorporation
ĠRep
ĠKelly
Ġstreets
Ġsitting
Ġslightly
ĠInvestment
99
ond
Ġunits
Ġvotes
Ġsegment
Ġchampionship
Ġsquad
iting
ron
®
Ġem
Ġtouch
Ġ38
Ġceremony
Ġdecide
Ġapproval
So
ĠPort
Ġsub
Ġsc
Ġrep
ĠWeek
Ġupper
Ġagree
ny
Ġmatches
ics
Ġtweeted
Ġheat
ĠGreat
Ġpenalty
Ġmass
Ġalongside
Ġherself
berg
Ġscience
Ġentered
Ġappeal
ĠPr
Ġfile
che
ĠReport
ĠThree
ĠNorthern
ĠJordan
Ġamid
Ġpace
Ġjail
Ġfinance
ĠYoung
32
Ġwilling
Ġconduct
ĠPar
Ġestablished
Ġreturns
Ġaid
Ġinternet
IA
29
Ġmeetings
Ġwarning
ĠCl
Ġcampus
Most
ĠFund
ĠWilliam
ĠJapanese
Ġconsensus
Ġbrain
!"
Ġpoll
Ġtech
Ġtrend
Ġpotentially
Ġreduced
ĠShow
Ġ37
Ġhappening
ĠBrazil
pl
ĠCal
Ġcovered
Ġenter
TV
Ġcatch
foot
Ġunion
Ġexpansion
ĠSingapore
ĠDetroit
Ġattended
ats
Ġnewspaper
ĠDivision
news
Ġcap
Ġremoved
Ġ48
ĠRoyal
Ġwindow
Ġparking
Ġdark
Ġstanding
Ġupdate
Ġagent
Ġtransfer
ĠArmy
Ġuses
80
ĠTe
Ġintroduced
Ġmale
ĠSouthern
Ġratings
Ġisland
ĠMiller
Ġteachers
Ġadvice
Ġfamiliar
uf
Ġsought
Ġpor
ĠEric
Ġda
Ġideas
uh
Ġsixth
Ġtalent
ĠImage
ering
run
ments
Ġconducted
300
Ġurged
Ġdiscovered
Ġpl
Ġunderstanding
Ġoffense
Ġsecretary
Ġsk
Ġloans
ĠGr
Ġapplications
Ġcrude
go
ĠInstead
Ġopinion
Ġdoubt
ey
Ġdis
31
Ġexperienced
Ġleg
ĠCleveland
ven
Ġfailure
market
ack
Ġdecline
Ġchanging
Ġ300
Ġdefence
ĠBrian
Ġdelivery
Ġmarried
Ġdeclared
Ġpull
Ġlimit
ĠMORE
Ġdefeat
Ġexpand
ĠColorado
ĠRob
iss
Ġworse
Ġperform
ising
Ġ2007
ĠDel
Ġsurgery
Ġeasier
Ġmaintain
ĠEx
Ġtied
Ġeast
Ġuser
ola
Ġprogramme
Ġmanufacturing
Ġhitting
Ġx
Ġskin
Ġartist
Ġtells
Ġnearby
ĠDaniel
ĠPower
Ġdetermined
Ġactual
Ġtreated
Ġlived
Ġcomputer
Ġcool
oo
ĠPl
Ġeffects
Ġenvironmental
ĠMorgan
Ġflow
Ġachieve
ĠBell
Ġtesting
ĠBob
Ġwhatever
ĠBecause
US
ĠHollywood
Ġconflict
Ġwalking
ĠJudge
ĠAlabama
Ġaircraft
Ġte
well
Ġgoods
Ġidentify
Ġassociated
ĠVer
ĠEducation
Ġairport
IL
Ġfalling
Ġgiant
ĠMa
ĠMedical
Ġride
Ġden
º
ĠJose
Ġwest
ĠPacific
Ġvisitors
ĠWatch
ĠNations
Ġgains
Ġschedule
34
ĠExchange
Ġpayments
ĠII
70
No
ĠSyrian
ĠAdam
Ġne
Ġpartnership
Ġbl
ĠGeorgia
Ġsites
Ġmodels
Ġdegree
Ġdetermine
ĠWilson
Ġcontest
Ġprofessor
ĠChelsea
Ġmeaning
ĠGames
ĠTrust
ĠAsian
33
Ġlink
ĠUp
Ġholds
ĠTop
ĠItalian
ord
ĠKansas
Ġfarmers
Ġextended
Ġbirth
Ġreform
Ġrelations
Ġwrite
Ġsupporting
55
ita
Ġnotice
ster
Ġanimals
ĠJersey
Ġarm
ĠForeign
ĠLife
Ġtruly
ĠOnce
ĠMayor
ĠFree
ĠAgency
ĠWood
Ġpassing
DA
Ġ52
Ġmoves
Ġcom
house
ĠIts
Ġmarijuana
ines
Ġveteran
Ġvariety
ki
ff
amb
Ġlisted
Ġpushed
Ġvolume
Ġincreasingly
Ġkick
Ġrock
ank
Ġfees
Ġenable
Ġimages
Ġtruth
Ġministry
Ġrare
ĠDallas
ĠMinnesota
Ġcontributed
ĠCharles
Ġpercentage
Ġtechnical
ĠApp
Ġassistant
Ġinterests
Ġimmediate
38
ĠTown
Ġclosing
ĠAnthony
Ġsouthern
ase
ĠPutin
ĠForce
ba
Ġrefused
ĠStill
ix
ĠCol
Ġmaterials
Ġstructure
Ġdriven
Ġpatient
Ġbroken
Ġradio
Ġscale
Ġreplace
Ġ39
ĠLand
Ġdeputy
und
Ġcolor
OS
Ġroads
Ġcorruption
ĠRose
Ġemployee
ĠWater
Ġseats
Ġwalked
ec
Ġcents
Ġchain
Ġpayment
ĠAndroid
eb
Ġcommission
Ġthrow
Ġcount
Ġaccident
Ġexpensive
ered
ĠYes
ĠLouis
Ġstudies
Ġinvestigating
Ġcentury
Ġdiscussion
Ġinter
DAQ
ĠBefore
Ġinitially
*
Ġinvestments
Ġmulti
Ġtight
Ġconfident
Ġcounter
ĠQu
Ġgovernments
Ġarmed
Ġsuit
Ġrow
Ġlocations
Ġepisode
itch
Ġyounger
Ġfestival
Ġpitch
ĠOF
Ġtalked
ca
Ġprotests
Ġtargets
90
Ġoriginally
Ġsinger
Ġjourney
ug
Ġapply
Ġteacher
Ġchances
):
Ġdeaths
isation
ĠStephen
Ġcode
ĠChampionship
ĠJason
ĠAT
Ġaccept
ĠSeries
Ġvalues
Ġbed
ĠHarry
Ġflat
Ġtools
Ġpublicly
37
Ġpointed
ĠGolden
ps
Ġunable
ants
Ġestimate
Ġwarm
Ġbasic
ern
Ġraising
ĠRelated
Ġultimately
Ġnorthern
Ġplane
ĠVice
ĠRaj
ĠJustin
anc
Ġbrings
ĠArt
OT
Ġshift
ĠBBC
ĠSu
BS
Ġbag
Ġdoctor
Ġfill
Ġdowntown
Ġpossibility
ĠAg
Ġest
44
Ġstruggling
Ġlinked
Ġtickets
ĠJay
ĠCall
Ġstands
Ġwedding
Ġresident
eng
Ġleads
Ġadvance
ĠAtlanta
Ġtie
Ġadvanced
pt
burg
ĠEarlier
ĠSw
ĠZealand
Ġexercise
ĠAM
Ġaffect
Ġpossession
Ġinvolving
Ġ42
Ġwriter
ĠBeijing
Ġdoctors
Ġobviously
Ġer
ĠOlympic
Ġ75
ĠKhan
ĠFort
app
like
Ġsea
ock
Ġmix
ĠIraq
ĠMuslim
ĠFinally
Ġcontinuing
Ġpr
ĠKe
ĠJoseph
Ġexpects
Ġinstitutions
Ġconservative
own
ĠChairman
Ġreturning
.-
Ġstood
Ġvision
ess
Ġadults
Ġyield
Ġprove
Ġorders
Ġdream
36
related
Ġsl
Ġeverybody
ui
Ġrepresents
Ġdiscussed
Ġbecomes
Ġvillage
CC
Ġnegotiations
ĠPhiladelphia
Ġcelebrate
Ġfarm
Ã§
Ġregistered
ĠGovernor
OL
ĠMon
Ġfiling
04
SE
ĠAssembly
Ġactress
Ġsi
Ġthank
Ġheading
ĠWho
Ġfamous
Ġconsecutive
Ġmarriage
ette
NAS
acks
ĠPlease
ĠDiego
Ġbaseball
ĠMoore
Ġties
Ġcarrying
que
Ġturning
ĠMcC
ĠKen
OR
ĠStock
Ġbuildings
49
ĠVan
39
ĠSeattle
Ġwild
Ġcrew
Ġroute
ĠTime
Ġtonight
Ġmoments
Ġvideos
Ġinternal
ĠLiverpool
port
Ġchair
Ġrival
ĠScotland
round
ith
Ġbreaking
Ġvoting
ically
Ġproducer
ĠLove
Ġremove
PA
Ġasset
Ġrequires
Ġsigning
ages
Ġimpressive
ĠIrish
Ġauthority
Ġruled
Ġaimed
Ġcaptain
AG
Ġplants
ĠAnderson
ĠSpanish
Ġbanking
Ġthreats
Ġsuspended
Ġtests
Ġreligious
Ġelectric
ĠREAD
Ġstrategic
Ġsplit
ex
Ġpractices
ĠIsraeli
ĠArabia
ĠMoscow
Ġfranchise
Ġcustody
ĠOld
Ġrequirements
Ġquarterly
Ġcomfortable
Ġcrimes
Ġheaded
Ġnewsletter
Ġanimal
Ġregulations
long
ĠCNN
Ġassists
Ġshopping
ĠGov
ĠSecurities
Ġassistance
Ġnor
Ġrelatively
Ġincreases
Ġgenerally
Ġ55
Ġgained
Ġ41
Ġpictures
gan
Ġpop
Ġupdates
ĠRepublic
Ġrebounds
ĠPatrick
Ġrelief
Ġacting
ĠFestival
Ġ2006
Ġboss
Ġtypes
65
ĠYet
Ġpurpose
ning
Ġmatters
Ġcompete
ball
ĠRam
Ġsw
ĠFollowing
ĠBush
Ġtroops
Ġsupposed
Ġfreedom
Ġfeatured
Ġstorage
ĠInformation
ĠHong
Ġgolf
Ġagents
Ġfraud
Ġminimum
Ġartists
Ġeat
high
ĠFormer
ĠKong
ĠJosh
ĠDelhi
Ġshowers
ĠAcademy
Ġapartment
Ġvan
Ġfish
oe
Ġfilms
ĠBo
Ġedge
Ġpossibly
Ġtweet
09
Ġresolution
jo
Ġkill
Ġ44
Ġcell
Ġscheme
Ġth
Ġbonds
Ġentry
Ġsecret
Ġ43
Ġending
Ġweren
ĠCredit
ĠLive
Ġretired
Ġmachine
Ġsummit
Ġsharing
Ġacquired
Ġera
Ġwear
ical
07
Ġexciting
li
BC
ĠSocial
Ġhistoric
ĠChe
ĠLewis
ira
Ġstolen
ĠSpeaking
Ġsleep
Ġspokeswoman
week
Ġpurchased
Ġimportance
EC
Ġends
Ġdress
Ġparliament
ĠCruz
Ġcards
hi
ĠEmail
Ġrepresent
Ġbrands
ĠSenior
Ġparticipants
Ġfly
Ġidentity
ĠHam
ĠSky
ĳ
SA
Ġpromised
Ġtrouble
Ġsuffering
Ġleaves
Ġsuggest
Sh
Ġbusy
Ġproperties
Ġworldwide
Ġcloud
ĠSEC
Ġclosely
Ġmanage
Ġnumerous
Ġbackground
ĠExpress
Ġ65
ĠTony
ĠMadrid
ev
der
Ġsignificantly
Ġalternative
Ġship
head
ators
Ġdinner
ax
SC
Ġcriticism
ĠMah
ĠMin
rie
ĠTour
Ġbench
Ġadds
Ġseriously
star
ĠJournal
ĠDi
ali
Ġsentence
ĠSeveral
Ġmayor
ati
Ġsuggests
Ġbehavior
Ġstronger
ĠFood
Ġclient
not
ĠPrice
Ġtargeted
ĠSingh
ĠNetwork
Ġprosecutors
Ġdirected
ĠDemocrat
bl
ues
ĠFamily
Ġconnected
ĠChampions
Ġroughly
Ġabsolutely
08
Ġpassengers
Ã¶
ĠSpecial
Ġcoast
Ġcomplaint
Ġ400
ĠEm
ves
Ġdogs
Ġhandle
Ġotherwise
Ġsees
Ġticket
ĠAward
All
Ġtask
Ġsongs
ĠAmong
Ġdedicated
Ġsteel
looking
Ġshortly
Ġtackle
ative
Ġminor
Ã¢
Ġprovider
vers
use
ives
Ġtypically
Ġarms
ĠAnt
ĠIS
Ġjump
ĠÂ©
47
aff
Ġmonthly
ĠMicrosoft
ĠCBS
Ġthreatened
Ġhonor
ĠMo
42
Ġinning
Ġpool
Ġhealthcare
ĠStory
ĠTennessee
Ġpromote
EL
Ġemotional
Ġpe
Ġfactor
Ġinvestigators
Ľ
ĠBack
ĠProject
Ġcu
side
Ġmessages
TH
eg
Ġexperiences
Ġcausing
Ġjoining
Ġpackage
Ġbodies
Ġlots
ĠHarris
Ġcl
ĠInternet
free
Ġperformed
Ġpieces
buy
Ġcaption
Ġweb
Ġcontracts
At
Ġattempted
Ġunlikely
Ġclick
Ġinvest
IM
ĠView
Ġneighborhood
Ġring
ĠFour
ail
46
One
Ġnative
CH
OM
Ġalcohol
ĠVal
Ġcharacters
ĠPat
Ġpoliticians
ĠMag
Ġbegins
ĠAk
Ġlos
Ġpersonnel
Ġenjoyed
ĠTechnology
Ġsun
ĠIT
Ġdocument
Ġdeficit
Ġcoalition
Ġmemory
Ġpushing
any
ified
Ġfounder
Ġ2000
2017
Ġvisited
ĠThough
ph
Ġsoft
Ġflag
Ġmom
inch
ĠSamsung
Ġapps
Ġtouchdown
ĠCare
ĠMrs
Ġredistributed
Ġencourage
ched
Ġtend
Ġregions
pp
IP
br
ush
Ġargued
Ġjunior
BA
Ġsevere
ĠNIGHT
Ġdef
Ġsurrounding
48
Ġengine
Ġfilled
Ġseventh
Ġbattery
ĠAllen
Ġguidance
Ġroll
Ġrural
Ġexpert
Ġconvicted
Ġlikes
ĠRo
Ġgrown
Ġretirement
Ġintended
Ġmis
Ġarmy
Ġdance
ĠThank
Ġent
Ġoutlook
Ġpara
Ġdry
ĠTO
era
Ġwaste
Ġfaster
ĠEagles
TA
ĠFrank
Ã
LE
ura
ko
ao
Ġdistribution
Ġimprovement
Ġplayoff
Ġacquisition
ĠCH
Ġtomorrow
Ġstruggle
ĠHuman
Ġnewly
oon
ĠNe
con
sc
Ġunless
Ġtransition
ten
ĠInter
Ġequal
Ġrec
Ġappointed
Ġwake
ĠEarth
ose
ĠEastern
Ġsoldiers
ĠParliament
Ġsets
Ġattempts
ĠIllinois
Ġrevenues
ĠWil
Ġheads
Ġprepare
Ġpriority
PS
ĠJo
ĠNBC
Ġtherefore
yn
Ġinitiative
ct
Ġcoffee
ĠFair
43
den
form
ova
Ġappropriate
ĠPlay
Ġaccepted
Ġcreative
Ġfollows
Ġrescue
Ġtree
With
ĠNetflix
ĠFootball
Ġsurprised
Ġlowest
800
amp
Ġworried
mar
ran
Ġvisiting
Ġselected
ĠMusic
ĠAnn
Ġexplain
ging
Ġwidely
Ġsquare
Ġtrends
Ġimproving
ĠHead
ĠQueen
ĠSociety
Ġcutting
ĠGOP
03
',
ET
ĠDrive
oll
ato
ĠSea
Ġjury
ĠRights
Ġinvestor
ĠABC
Ġtool
ĠAre
Ġrejected
Ġemerging
Ġcounts
Ġnations
Ġfalse
Ġtreat
va
Ġweak
ĠHighway
down
Ġstruggled
ĠMP
Ġguests
Ġgender
Ġhouses
rit
ĠWild
Ġstreak
uc
ĠReserve
ĠRatings
alt
Ġgreatest
Ġlawyers
Ġreaching
Ġtemperatures
To
Ġoutstanding
Ġpasses
Ġfaith
inc
Ġcr
Ġinformed
oz
Ġtrees
Ġsending
Ġ150
bo
Ġwine
ros
Ġsuspected
Ġrepeatedly
Ġhat
Ġshape
ĠWh
Ġassist
Ġstress
Ġfeed
ark
ored
Ġwatched
Ġincredible
cl
nt
Ġentertainment
ih
Ġbeauty
Ġbi
ĠLocal
Ġsat
41
Ġbroad
Ġheavily
Ġengaged
Ġspecifically
ĠMen
ĠRoss
Ġ2005
ST
95
Ġdownload
400
Ġsentenced
ĠCatholic
ĠOklahoma
Ġthrew
Ġworry
Ġimp
Ġdrove
Ġcolleagues
Ġagenda
64
ĠEach
Ġfee
New
ium
Ġspokesperson
Ġbills
Ġ47
ĠAfghanistan
Ġinvited
ĠYouTube
Ġanniversary
Ġdozen
ram
ĠOnly
Ġemployment
Getty
Ġgap
Ġsweet
ĠLittle
Ġinf
ying
Ġglass
Ġclasses
Ġcoal
ĠSub
Ġduty
CA
Ġcoaches
Â
anna
ĠSk
Ġ46
ison
ille
ĠST
ric
Ġparticipate
Ġequ
Ġrich
Ġrespectively
Ġexpenses
Ġcombination
right
Ġshareholders
Ġturns
Ġearn
Ġ51
ured
Ġdrink
ĠKar
ĠShares
ĠMid
ĠGetty
Ġbridge
lo
Ġinspired
Ġsurface
Ġgift
ence
Ġchallenging
Ġoffices
Ġsuspects
ĠFinance
Ġab
bound
Ġmomentum
Ġbacked
Ġparent
Ġcrucial
ave
Ġdealing
Ġregulatory
Ġapparently
ĠMat
Ġapart
Ġport
ole
Ġbeach
Ġcultural
Ġinstitutional
Ġbeating
ĠIowa
ĠAli
67
Ġje
ays
Ġweekly
Ġbirthday
Ġpipeline
Ġknee
Ġsolar
ĠPe
Ġcategory
ĠArea
ky
ures
06
ĠBall
Ġsemi
ĠHamilton
hip
ĠPh
ĠNext
Ġathletes
ii
Ġmovies
han
net
Ġplastic
Ġbehalf
gen
Ġfindings
Ġstretch
ĠSa
Ġofficially
ĠSarah
Ġprivacy
ĠMad
Ġnone
gh
On
Ġdrama
ĠFl
ika
ĠArsenal
Ġviolent
UN
called
59
Ġhate
Ġrelationships
Ġgranted
ĠJon
Ġlisten
season
Ġfewer
GA
ĠLabour
Ġremarks
ĠJonathan
ĠRos
sey
ĠOntario
ĠThompson
ĠNight
Ġranked
ĠUkraine
Ġimmigrants
Ġdegrees
ĠGe
Ġlabor
umb
ĠYORK
Ġallies
sp
hed
sw
Ġtariffs
SP
Ġclassic
Ġawards
ents
Ġfix
Ġsoccer
Ġconcert
ust
Ġadult
Ġoutput
Ġmanaging
02
Ġpromise
Ġawareness
Ġgross
Ġentering
Ġpo
oj
Ġmetal
Ġexit
Ġexcellent
Ġclubs
hold
Ġreplaced
ĠClass
Ġscientists
Ġprimarily
ĠMer
Ã£o
Ġcircumstances
ades
Ġsupplies
aker
ĠSand
Ġscandal
Ġsettlement
ĠWisconsin
ĠWarriors
ĠAustin
Ġjournalists
ening
Ġreflect
ĠBuy
ĠAwards
Ġselection
ĠBel
bury
Ġtechnologies
%,
ime
ĠÄ
ĠAdministration
Ġchannel
Star
Ġtransport
Ġawarded
ena
Ġmotor
orn
kin
Ġfeaturing
Ġphones
ĠAND
Ġrelevant
ĠSee
Ġwinners
Ġdad
ĠSource
ĠCheck
aut
ĠFar
Ġopponents
Ġoutcome
Ġdoors
Ġsuicide
ima
Ġjumped
Ġperspective
Ġtransportation
Ġthinks
ĠMor
Ġdeadline
Ġ53
ĠDeputy
ery
Ġdetailed
uch
ĠBur
Ġtrades
ĠGreg
Ġzero
erson
ĠChildren
Ġdu
66
Ġmixed
ĠBarack
54
Ġterritory
Ġac
Ġconcept
ĠAdd
Ġourselves
Ġreaction
ĠSydney
ink
Ġconsistent
Ġboat
room
Ġdozens
Ġeffectively
but
Ġmotion
Ġalive
ĠKey
weight
Ġexports
Ġoperate
Ġregime
ĠAuthority
och
ĠCR
leg
Ġforget
American
bs
Ġthoughts
ĠSign
ĠPatriots
Ġbrief
ĠOregon
ĠBal
Ġmine
Ġciting
Ġmagazine
more
ERS
ĠBer
ua
ox
ĠMain
Ġinstance
tr
Ġrestaurants
ora
Ġharassment
","
Ł
Ġsilver
ĠMueller
ĠSenator
ĠEvery
Ġfootage
ms
Ġopposed
ĠLink
Ġver
Ġpleased
ame
ending
Ġrivals
ida
ike
ta
ĠCook
Ġheadquarters
ear
Ġaggressive
Ġcourts
ĠMuseum
Ġim
ĠHoldings
Ġcommunication
Ġphase
yl
Ġpowers
Ġproved
Ġcarbon
Ġaside
ĠOlympics
Ġgathered
ĠPennsylvania
Ġsmartphone
ĠMet
ĠHurricane
Ġprotected
Ġcommunications
Ġemerged
Ġaim
Ġstable
ides
GB
Ġentirely
Ġmissile
ĠGen
Ġunclear
Ġelectricity
ology
away
Ġlicense
ĠPittsburgh
Ġcameras
Ġmusical
Ġmanagers
57
Ġscores
Ġprofile
hel
¼
Ġshouldn
RA
);
Ġpermanent
ome
Ġet
Ġmar
Ġfavor
Ġmaker
Ġdiscussions
ory
Ġsharp
Ġpleaded
Ġpassenger
quarter
Ġdem
Ġversus
Ġmainly
Ġeighth
ĠAirport
ĠCross
million
ĠNas
Ġcited
56
Ġyes
ĠBelow
arn
ĠTurkish
ĠSl
Ġstepped
Ġproducers
Ġovernight
Ġsounds
52
Ġ64
Ġ54
58
ĠClark
ĠRick
Ġgr
ĠMont
Ġbeer
une
Ġreporter
Ġcharity
Ġeating
Ġextend
Ġguess
NA
Ġhedge
Ġencouraged
owned
ĠMel
ĠKentucky
ace
Ġlineup
Ġhosts
Ġcapable
PR
ĠArts
Ġcontroversial
Ġhosted
ries
Ġroster
Ġfixed
ĠWalker
ged
Ġdisaster
Ġdispute
ĠDenver
ĠTrade
ute
ese
cy
Ġgrant
ĠMax
Ġdistance
isc
Ġeditor
ĠDave
Ġperformances
Ġlay
Ġvulnerable
ĠMurray
ĠâĤ¬
Ġmining
Ġ2004
level
ability
Ġauto
Ġfake
Ġattacked
ona
ups
ened
Ġfallen
Ġstations
ĠContact
itz
Ġincidents
Ġcomplaints
Ġoperates
Ġrefugees
Ġessential
ĠTest
Ġdemands
Ġroles
yr
Ġacts
Ġusual
ring
Ġhanded
ĠMatthew
hour
Ġindustries
Ġshoot
ĠAuthorities
Ġprobe
ĠUtah
ĠRBI
ĠAD
Ġprospect
outs
ĠUber
Ġbright
Ġmention
Ġsavings
ĠMiss
ONDON
Ġ1990
arm
ĠTen
These
Ġexplains
minute
85
Ġmaximum
Ġro
Ġrookie
Ġstudio
ĠCam
ĠGal
Ġdefend
hand
53
ĠOil
Ġserves
Ġsn
ios
ĠDefense
AB
Ġhired
Ġsupports
Ġpremium
ef
Ġfailing
ĠIndiana
Ġexp
Ġobjective
Ġaffordable
ĠCom
ĠThanks
Ġanywhere
Ġconfirm
ited
Ġrepresenting
Ġwitness
69
Ġclaiming
Ġviolation
Ġhistorical
med
Ġpreparing
ĠTech
Ġposts
OC
ĠGraham
ĠGl
ĠLions
ales
ĠID
Ġcorrect
ĠAntonio
Ġadvertising
Ġeastern
OW
Ġholdings
Ġpolls
ĠSH
Ġexecutives
ĠJewish
ĠGary
Ġprize
ĠCommissioner
Ġcells
ify
Ġlunch
Ġdemocracy
ĠEr
Ġregularly
Ġresulted
ĠAve
ĠPartners
Ġrewritten
Ġlo
Ġcooperation
ĠGulf
Ġsmoke
ĠMemorial
Ġwave
Ġfears
Ġkid
ĠGiants
Ġrecovered
row
ĠRadio
ĠBarcelona
Ġwonderful
ĠDow
Ġstream
ĠSimon
Ġdetail
Ġvolunteers
ĠInd
Ġforms
mann
ĠRay
oor
ĠTake
Ġrepresented
het
Ġblow
aged
RE
ĠMissouri
Ġcovering
Ġprofits
Ġconcluded
Ġthus
ĠColumbia
ode
ĠZimbabwe
Ġdisclosed
Ġlifted
ĠSean
ĠHarvey
ĠPlus
ces
ĠGreece
ĠLady
Ġdelay
Ġkitchen
ĠIndex
Ġbear
Ġputs
new
88
ĠAsh
Å¡
Ġperforming
law
ĠPart
Ġindicated
Ġannounce
Ġcompensation
Ġka
ĠScience
ris
Ġrecommendations
ĠSecond
Ġlights
Ġtemporary
urs
Ġwestern
stone
68
ĠDisney
Ġplayoffs
Ġjudges
Ġengineering
ĠPen
ĠPal
Ġobvious
ĠBridge
ĠEnd
ĠArab
Ġexcept
Ġhole
class
Ġcauses
Ġconnect
ĠAI
An
Ġchose
ĠElizabeth
min
Ġproper
ĠNHL
Ġraces
Ġinnovation
Ġsugar
600
ĠModi
illa
Ġtrillion
ĠSar
ĠAffairs
Ġimpossible
Ġguide
Ġcaptured
ĠSales
Ġspecies
51
Ġar
Ġmaster
Ġstayed
iro
ĠEconomic
Ġvast
ili
Ġpet
ye
77
Ġkeeps
ĠPhil
ĠEPS
ĠRegional
Ġsectors
Ġdesire
ĠStanley
¾
Ġunknown
Ġpot
ĠPR
Ġknowing
Ġflying
ĠTreasury
iers
enn
ably
Ġsick
Ġmanner
Ġmanufacturers
Ġchampions
gy
Part
ister
ĠMountain
Ġimagine
Ġportion
ĠCamp
Ġchemical
ible
ĠAnaly
ĠBureau
Ġpm
Ġupdated
Ġetc
ĠField
iles
Ġobtained
Ġstick
Ġcat
har
Ġmarked
Ġmedium
ĠDes
People
Ġwealth
ores
ĠBaltimore
Ġtip
Ġdismissed
ĠVictoria
ĠBrad
Ch
Ġ56
Ġstadium
eth
Ġthunder
Ġtested
Ġdrawn
Ġcounsel
ld
Ġspirit
uss
Ġtheme
my
Ġnecessarily
Ġelements
Ġcollected
ĠRes
ĠMaryland
ĠEnter
Ġfounded
ae
Ġpilot
Ġshoulder
PC
Ġargument
Ġyen
Ġreceiver
Ġharm
ĠET
Ġprotesters
Ġ72
ĠAaron
Ġed
Ġexpecting
":"
Ġbike
Äĩ
Ġluxury
half
ĠBarbara
Ġfoundation
Ġill
Ġsubmitted
Ġdeeply
Ġhospitals
ĠBJP
Ġshock
Ġplatforms
Ġsummary
ĠWhere
Ġcelebration
iff
Ġveterans
Ġachieved
fl
Ġactivists
ĠManager
Ġformal
Ġformed
Ġinvestigate
ĠKyle
Ġ:
ĠRa
ovic
Ġdrinking
Ġnetworks
ĠAlexander
ĠOs
Ġ)
Ġbomb
Ġrecalled
ito
ient
Ġrepresentatives
ĠChrist
ĠWay
Ġdeadly
Ġinvesting
ĠRussell
Ġconsumption
Ġharder
Ġbail
Ġcritics
Ġdanger
Ġdrew
ĠSol
Ġcopyright
ĠHenry
Ġbuyers
Ġresidential
Ġmaintenance
pr
Ġmarks
Ġages
Ġcovers
Ġton
Ġtitles
ĠPS
ĠEvans
Ġmigrants
Ġflights
Ġmonitoring
Ġaddressed
Ġvital
Ġcontrolled
Ġweapon
Ġinches
Ġreduction
Ġurban
Ġcoaching
Ġreducing
ila
Ġrealize
Ġmeat
Ġref
Ġoverseas
Ġblame
Ġterrorist
Ġstuck
ĠUs
esh
pro
Ġ58
ough
Ġexposure
ĠAbu
state
Ġproviders
Ġfore
Ġjet
bar
Ġownership
ret
Ġupset
Ġfacts
Ġpurchasing
Ġreforms
Ġriver
Ġsomebody
Ġguest
iy
Ġauction
ĠReading
Ġconsequences
Ġrepresentative
Ġappointment
add
Ġcollaboration
ĠTesla
ĠCohen
Ġengagement
Ġspeaks
EST
Ġexposed
Ġmaintained
rs
Ġdating
ĠProgram
board
Ġracing
Ġpension
ign
iti
ĠFive
Ġextensive
ĠHa
ĠPoint
ĠMexican
Ġexpanded
Ġtotally
Ġinvestigations
ĠOrleans
Ġcycle
ĠESPN
ifying
Ġcup
ĠAz
ĠInvestors
Ġengage
reg
Ġfought
Ġterrorism
Ġblocked
ĠOK
Äį
72
Ġdestroyed
«
Ġstaying
Ġafford
Ġappearances
ĠHills
Ġcrore
Ġstrategies
Ġtips
ĠSm
ĠFr
Ġbanned
ĠSon
ask
Ġlimits
Ġrecognition
Ġeligible
ĠGar
Ġvolatility
Ġlaid
nes
Ġgrade
ĠRE
ĠHart
Ġ57
oma
Ġuncertainty
Ġrecognized
ĠPC
Ġchosen
uz
Ġadviser
una
Ġassessment
Ġreveal
mo
After
ĠBro
ĠOff
Ġpeak
Ġreferred
ĠSC
Ġ2003
ification
Ġshutdown
ĠOfficials
ias
Ġextreme
Ġflood
Ġhockey
Ġwage
ĠNet
Ġdamaged
Ġreplacement
ĠMaria
Ġcreation
Ġguns
aci
Ġworker
do
Ġviewers
Ġseed
sts
Ġtouchdowns
Ġmistake
ray
ull
Ġpricing
Ġstrongly
Ġaims
ĠNavy
ĠEgypt
ker
Ġve
ĠSteven
Ġres
ational
Ġrequests
Ġemissions
ĠArena
uma
ĠAtlantic
hr
ĠAFP
ĠSquare
Ġcontribute
Ġfunction
Ġdec
ĠNelson
89
Ġreferendum
ĠPre
Ġapplied
ĠGMT
ĠIranian
ĠNigerian
ĠAny
NG
Ġacknowledged
Ġreferring
Ġventure
Ġimports
Ġblog
Ġfutures
OU
ĠUFC
Ġneither
Ġextension
hes
ĠMed
76
Ġsustainable
ains
Ġreputation
ĠVancouver
Ġbasically
acy
Ġsad
ĠFrancis
ĠKennedy
ĠNevada
ĠLu
ras
ĠAv
Ġrear
ĠHo
Ġproperly
abe
ĠHotel
Ġopinions
under
ĠStation
ĠFOR
ops
Ġadopted
ĠSwiss
ĠCountry
ĠTer
ĠAndy
Me
ĠCooper
ĠTigers
ĠCreek
Ġgay
iner
ĠAN
Ġbird
lla
ĠKate
ĠPet
ni
Ġprospects
ater
ites
Ġescape
lam
ake
Ġ1980
ĠLag
Ġsuccessfully
Ġdistricts
Ġministers
aries
Ġframe
ĠON
ĠEuro
ĠMarkets
Ġregister
Ġdefeated
Ġdevelopments
Ġninth
Ġquiet
Ġgenerated
Ġvaluable
Ġrecommended
ĠTheatre
ĠCap
bed
Ġreference
Ġease
oring
Ġ66
Ġimprovements
Ġelsewhere
ĠHillary
Ġdefender
ĠRight
zy
Ġcomprehensive
Ġspotted
ĠOakland
ĠOk
ĠSystem
ique
Ġpersons
Ġexist
Ġbroader
Ġclinical
Ġ2001
oul
Ġsecurities
ghan
Ġshelter
ero
ATED
Ġhosting
Ġselect
ĠKavanaugh
Ġrestrictions
osa
Ġyields
ĠLA
Ġ59
Ġwonder
Ġabsence
Ã¼r
ÅĤ
DP
Ġelectronic
Ġillegally
Ġmicro
ĠNEW
Ġhall
Ġaged
Ġtemperature
cast
atic
Ġlegacy
Ġaffairs
ji
ĠResources
Ġgang
winning
Ġattending
aro
Ġfriendly
aine
Ġcannabis
Ġairline
Ġnoting
Ġprofessionals
ĠFREE
RC
Ġfinancing
Ġindependence
ved
Ġresulting
Ġsteady
ĠWinter
uring
Ġhoped
98
Ġpresentation
aya
Ġrated
osh
ĠAnalysis
=
Ġdonations
IR
Ġcombat
ĠHoward
anda
79
Ġinvested
Ġexpanding
omb
ress
ble
Ġjournalist
ĠWoods
Ġcenters
ott
Ġstreaming
Ġterror
Ġsustained
ĠWWE
pre
ÅŁ
ait
Ġarrival
Ġresidence
Ġextent
Ġarrive
Ġ2002
Ġestablish
74
ĠArgentina
ĠDem
inn
aud
ĠNCAA
Ġquestioned
Ġballot
Ġmin
Ġlandscape
Ġhorse
Ġopponent
iel
Ġprompted
atory
Ġlift
Ġassociation
cher
Ġdefending
Ġtiny
Ġpoverty
ĠSafety
Ġpetition
ĠLimited
ĠCA
FC
Ãł
oni
Ġmonitor
ÃŃa
MA
Ġanswers
ĠMitchell
Ġbo
ĠShah
Ġsm
Ġmedal
ĠCivil
Ġrecognize
key
Ġpregnant
Ġspots
ante
Ġacademic
Ġinitiatives
Ġsecured
ĠCL
ils
Ġanticipated
Ġinvolvement
ĠMake
Ġinsisted
ĠWales
Ġclothing
Ġtracks
Ġsymptoms
Ġplate
ĠNY
Ġretailers
ĠPan
Ġfled
Ġquoted
Ġsaved
ĠCarter
Ġteaching
ĠTokyo
ĠCr
ĠSix
ĠPicture
Ġrecover
Ġcomedy
ree
Ġstrikes
ĠSanders
sel
Ġgraduate
Ġpending
St
Ġwarrant
Ġhonest
ĠGM
Ġnoticed
ĠGalaxy
ider
Ġproposals
Ġwore
Ġindeed
EM
ĠChannel
ances
ĠBrady
86
Ġgotten
Ġthrowing
ĠLeader
ĠVideo
71
Ġwelcomed
NEW
Ġfairly
Ġpromises
ĠSilver
Ġrape
Ġopener
ares
ĠSir
making
Ġcur
Ġrooms
73
Ġamounts
ĠIndustry
ĠDar
Ġ62
ted
Ġabroad
ĠMaybe
Ġreaders
oke
Ġpublication
ĠJean
Ġoperator
ĠHaving
ĠMil
life
Ġgenerate
ĠCraig
ĠMass
ĠBh
Ġrequested
Ġcrazy
ĠSpace
Ġcopy
Ġexport
Ġcontext
Ġbr
62
ĠRobinson
Ġcyber
ENT
BI
arg
Ġspeaker
Ġdramatic
ĠOl
ĠMill
Ġtrained
Ġediting
Ġsalary
Ġdirectors
Ġexplore
Ġlucky
Ġprominent
Ġbrothers
Ġneck
icht
ĠWatson
born
Ġproven
Ġprincipal
Ġedition
Ed
Ġswitch
maker
Ġrelative
mi
ĠBruce
ho
ĠScottish
water
ĠSport
ĠKings
ĠCollins
adi
Ġcelebrated
Ġclothes
Ġsunny
ĠCharlotte
ees
Ġscenes
ĠData
Ġwounded
Ġunusual
Ġrealized
ĠPlan
ĠTrans
ĠFC
Ġletters
Ġalerts
ĠWarren
DS
oss
pping
Ġsuspension
Ġbenchmark
ĠAcc
Ġalert
Ġpassion
ĠEst
Ġlatter
Ġstability
Ġarts
Ġpursue
ĠSeason
Ġfields
Ġmethod
63
Ġfolks
Ġexclusive
Ġcrews
Ġsessions
ĠMajor
ĠMount
Ġmap
Ġ=
Ġsituations
ĠBerlin
rey
Ġdates
Ġsheet
ĠLo
Ġfighters
ĠMart
Ġatmosphere
Ġillness
Ġcompeting
ĠChristopher
ĠRoy
mm
iano
Ġge
ĠRams
Ġconversations
ĠPa
ĠTel
Ġappreciate
78
ĠTotal
low
ĠStone
Ġopposite
Ġbarrel
Ġdevelopers
Ġexpress
Ġhighs
which
par
ĠVietnam
Ġblocks
Ġrecording
Ġadjusted
Ġret
ĠAR
Ġmilitants
Ġinnovative
ĠGhana
FR
Ġfantastic
Ġmortgage
ando
ĠLane
ises
ĠÂ
Ġhomeless
ĠKal
Ġapproached
Ġrounds
Ġmargins
ament
ĠMotor
Ġencouraging
ÂŃ
uru
Ġhandling
ĠMassachusetts
Ġplanet
ĠSpring
ĠBon
gu
Beat
Ġdrawing
ĠPhoenix
very
aid
ĠSte
ĠEntertainment
ĠRon
Ġassigned
ĠSA
News
Ġinterviews
ĠOh
media
vel
Ġpermission
Ġtransactions
Ġtraders
Ġsolo
Ġprovincial
Ġsuggesting
¡
Ġdiverse
Ġ67
Ġranks
ĠFre
Ġfavourite
Ġ63
Ġdifferences
Ġtargeting
Ġactors
Ġ76
icated
Ġcollect
akes
war
Ġcontained
ches
Ġlibrary
Ġsegments
ĠLine
Ãª
ual
Ġbags
Ġfactory
Ġear
Ġsomewhat
Ġrail
ĠUP
ula
ĠNiger
Ġlas
Ġimplementation
Ġemails
kel
wing
Ġadvised
--
istic
Ġdepth
Ġshoes
ĠJennifer
Ġvenue
Ġcontain
Ġhighlights
Ġcapabilities
Ġprocesses
Ġtradition
Ġcontacted
Ġproducing
Ġtrail
rem
Ġ600
Ġ68
AA
ĠBa
ĠSuch
ĠTyler
ipp
Ġsurvived
ami
ĠContinue
Ġcapture
bi
61
96
Ġthreatening
Ġkeen
dale
Ġtrailer
Ġstages
ĠGordon
Ġfinishing
Ġlegislative
Ġuseful
ĠGreek
ald
Ġgrounds
ĠDu
storms
ills
Ġexpense
Ġdetained
Today
Ġdiet
Ġwood
ĠCameron
Ġthrown
Ġcricket
Ġideal
with
Ġteammates
ours
Ġprojected
Ġpersonally
ĠBoy
rom
ĠPhilippines
win
ges
Ġcounties
ĠBaker
Ġprosecutor
Ġroof
met
Ġpartly
ĠMoon
eman
Ġfocusing
Ġfishing
than
ĠJeremy
ĠBad
ais
Ġcontrols
Ġtonnes
Ġshall
Ġ61
Ġgathering
ĠERA
Ġpresidency
Ġ85
ĠGas
Ġscenario
Ġquarters
Ġang
Ġsettled
ĠCommerce
Ġanybody
Ġgarden
ĠLibrary
Ġbet
Ġtopic
olo
Ġintense
87
Ġlinks
Ġmed
ĠAG
Ġflooding
ĠMurphy
PM
Ġfinds
Ġsensitive
pped
Ġcompletion
Ġminority
Ġvon
Ġstriking
rich
Ġbars
Ġefficient
Ġcontributions
Ġvisits
Ġattract
ĠMalaysia
ĠREL
Ġopens
Ġessentially
Ġreasonable
Ġsentiment
ĠMelbourne
Ġfitness
Ġfrequently
ĠRangers
Ġmuseum
ĠDNA
Ġcontrast
ĠAdams
ĠWin
Ġfalls
Ġimposed
250
ood
ĠRio
Ġchoices
Ġyellow
rin
ben
ĠStaff
ĠIndonesia
Ġcarries
Ġtourism
UM
ĠOrange
sell
Ġresolve
ĠMumbai
Ġpan
Ġimplement
Ġmidfielder
OP
Ġtensions
Ġ800
ĠLord
ĠLight
Ġlies
Ã©s
Ġparticipation
Ġtries
Ġsheriff
degree
Ġcongressional
Ġmode
Ġregulation
ĠJacob
ĠCrown
Ġbowl
ĠMississippi
Ġtheft
ĠKingdom
Ġresort
Ġroyal
Ġunemployment
PP
Ġnomination
ĠTR
Ġbehaviour
bank
ĠForest
WASHINGTON
ĠOthers
Ġslowly
Ġmenu
vo
ĠSy
ĠMetro
ĠLisa
Ġregistration
While
ĠJesus
Ġ250
Ġprocessing
Ġmonetary
ape
ener
ĠSystems
Ġdisappointed
Ġprint
uy
ħ
Ġdemanding
Ġincredibly
play
Ġsurveillance
ĠStandard
Ġperiods
Ġwrites
ĠLuke
ĠPalestinian
Ġwalks
Ġriding
Ġwaters
ĠSox
Ġtraveling
Ġtap
Ġorganized
Ġresource
Ġangry
Ġtiming
Ġempty
Ġmilk
Ġtherapy
ĠBrandon
mon
Ġnationwide
Ġnovel
ĠStorm
iet
ĠBre
Ġbegun
Ġdiplomatic
Ġads
ĠDC
ĠOb
ĠMontreal
ĠDown
ĠMilwaukee
Ġmeal
ĠPuerto
ĠMas
Ġjoy
Ġdeparture
ĠWright
Ġspoken
style
ĠAction
ĠComey
Ġdelivering
Ġtoll
Ġmidnight
ĠRevenue
Ġfiring
Ġstunning
Ġkicked
ĠOttawa
Ġefficiency
ĠLincoln
Ġtaste
ez
ĠWeather
ĠMorning
Ġhadn
Ġdiversity
ily
ĠAy
Ġargue
Ġerror
Ġtaught
Ġche
Ġoccasion
Ġinc
ĠOrlando
ĠOnline
Ġlegs
ĠNation
uck
Ġwidespread
ĠOcean
Ġconstantly
ĠLatin
Ġcomfort
Ġrely
uff
ĠCard
aring
Ġhumans
ĠThomson
aka
BIT
ĠReview
po
Ãº
Ġtrucks
Ġforecasts
view
Ġlongtime
ĠConstitution
Ġreserves
bit
Ġstressed
Ġcontribution
Ġchicken
ĠDE
Ġfat
ĠOscar
Ġcriticized
Ġtestimony
Ġapparent
Ġconstant
Ġcabinet
ĠDuke
Ġaspects
lic
ĠVol
Ġwing
Ġreb
ĠSessions
ĠSmart
car
ĠIm
Ġoperational
Ġregulators
ĠJimmy
eter
Ġnobody
ĠMarc
Ġliterally
Ġresistance
ĠKam
Ġsexually
Ġ69
uth
Ġviewed
Ġpicks
Ġdin
Ġtalented
Ġtennis
Ġstrengthen
Ġgl
ĠProtection
Ġinstalled
ways
ĠCampbell
ĠPortland
Ġintent
ĠPalace
Ġsecondary
Ġlocked
ĠPA
Ġlanded
Ġlength
Ġboosted
Ġpurchases
Ġcommand
ĠAsked
Ġspaces
Ġiconic
Ġrecommend
Ġduties
Ġseized
Ġdelayed
FA
AND
daq
Ġhiring
Ġoccur
DC
ĠMus
Ġag
Ġhopefully
ĠPenn
ards
Ġstriker
Ġrent
ĠTy
ĠBuffalo
ĠKy
Ġhike
pper
Ġ120
Ġop
Ġwheel
ĠIan
Ġchart
tt
Ġvolunteer
IG
person
ight
ĠBook
unt
ĠTechnologies
Now
Ġfavour
ĠGh
ĠQatar
ĠDutch
ĠGrant
ĠBan
rel
Ġagreements
Ġeducational
worth
ĠWard
700
Ġanymore
Ġrepair
Ġoperators
ĠLi
ots
ĠLouisiana
ĠWhether
Ġodds
Ġnoon
ĠStr
Ġfail
iser
Ġforever
Ġrecall
ĠPo
ĠHot
Ġdesigner
ido
LL
ĠControl
Ġsurvive
iam
Ġorganisation
ĠWork
Ġwider
Ġtank
work
ĠAS
Ġposting
Ġsuddenly
MC
ĠAL
ĠProfessor
ĠCoach
Ġrushed
Ġafraid
Ġactivist
that
ĠFilm
Ġbacking
Ġhousehold
Ġsignal
Ġaccurate
str
ĠThread
ĠBears
ATION
ĠAlliance
ĠMcDonald
ĠVenezuela
ogg
ĠWindows
makers
Ġutility
Ġrapidly
Ġattractive
Ġpa
ĠLarry
Ġmisconduct
Ġfreshman
Ġqualified
Ġcleared
Ġcrashed
Ġparticipating
Ġpages
Ġhighlight
Ġdialogue
ĠAlberta
Ġca
Ġwitnesses
ables
Ġfollowers
Ġensuring
Ġpromoting
Ġsearching
Ġremote
Ġclash
Ġfirefighters
Ġteen
ĠPlace
ĠNote
Ġregardless
ult
oney
ander
ional
ining
Ġdemanded
ĠCommunications
Ġconsideration
TC
ĠSoutheast
aga
ĠGarden
inger
ht
Ġbranch
Ġmouth
Ġaudio
Ġraw
Ġcoordinator
Ġexact
ĠHan
Ġdelays
ĠWal
ĠWells
Ġng
Ġhandful
Ġgirlfriend
Ġtypical
ĠWayne
ĠFranklin
Ġconstitutional
ĠChance
Ġblamed
rim
Ġpreliminary
Ġlie
da
ĠCapitol
Ġroutine
ĠNASA
Ġtre
ĠGolf
Ġsight
ĠDer
Ġreserve
150
Ġspeculation
Ġcompetitors
ĠMacron
ony
Ġovertime
Ġ71
Ġdepending
ĠWarner
Ġaccusations
ius
Ġpredicted
ĠCharlie
Ġeverywhere
Ġcable
ĠSaint
ĠRegion
Ġhero
ĠEmb
Ġkinds
Ġstarter
Ġsolve
ĠGuard
Ġloves
ĠDouglas
Ġfunded
ĠBrent
ĠAnyone
Ġsubstantial
ĠMarine
ĠMichelle
Ġcelebrating
Ġoffset
Ġbutton
gg
Ġmedicine
uri
Ġsomewhere
PD
Ġmon
Ġfires
final
oth
ined
Ġunderway
Ġmistakes
Ġgrateful
Ġcheap
È
Ġ95
Ġviolations
arr
Ġsurprising
Ġob
ĠNATO
Ġcontroversy
ĠSweden
Ġfuneral
Ġreviews
Ġpromotion
TY
Ġliberal
Ġpromising
ĠSP
How
Ġmemories
Ġbreast
zi
ights
Ġpattern
Ġoutdoor
ĠMu
Ġrush
ĠTheresa
ĠPol
Ġdescribe
ĠBand
ĠStewart
Ġ1999
ĠRaiders
mp
Ġprocedures
Ġplot
Ġhire
used
Ġ1970
Ġpicking
ĠSim
Ġregard
inal
backs
ĠHard
ĠLow
ĠAc
Is
Ġguarantee
ĠGiven
Ġbeta
ĠTre
Ġtrans
Ġretailer
Ġpurposes
ĠHol
Ġenjoying
Ġbrown
ĠPerry
Ġplea
MS
ĠDakota
ĠParker
Ġcommit
ĠLawrence
ĠMorris
ended
Ġvirtual
ÃĹ
Ġfruit
84
ĠHas
ishing
Ġdominated
ĠFA
Ġchannels
Ġunderstood
Ġcitizen
Ġchecks
ĠKenya
Ġdisabled
SD
Ġprotecting
Ġtweets
Ġsparked
ĠCO
§
ori
ĠGDP
ĠSer
ĠVisit
ĠMS
Ġbarely
Ġsand
Ġap
aging
Ġrel
ĠPerhaps
ĠMourinho
ĠJets
Ġdisclosure
Ġhighlighted
Ġimplemented
Ġcompliance
ĠAB
ĠAssistant
ĠCape
Ġfunny
Ġleverage
Ġmachines
Ġranging
Ġfastest
ĠRoberts
ĠPolicy
gar
Ġcollapse
ĠThrough
Ġrobbery
ĠHay
Ġelite
ĠDigital
ĠFun
ĠAlan
ement
Ġmit
Ġspin
Ġlistening
ĠDoug
ĠSaints
Ġinterior
Ġenhance
ĠCardinals
ever
Ġrobust
Ġinform
Ġsuffer
book
ĠMuslims
Ġagriculture
Ġkm
Ġdivers
Ã±
ĠReg
Ġequivalent
Ġcraft
Ġsettle
Ġcontains
ĠMack
ĠDis
ĠFore
ĠSudan
ĠMail
ĠBrooklyn
izer
bn
Ġhundred
Ġexhibition
ĠHave
vin
Ġcivilians
ĠCincinnati
Some
ĠSE
Ġbat
ĠIns
Ġcalm
Ġtone
Ġnormally
Ġseeks
ĠAss
Ġmembership
Ġannually
Ġemployers
CO
Ġcomplicated
Ġheadlines
ĠLabor
Ġlifestyle
ĠRen
ĠRich
cent
ude
Ġawesome
Ġpaint
Ġrolling
Ġwalls
Ġlab
Ġtourists
care
Ġgear
izz
Ġcream
ĠTro
ices
Ġpack
Ġdiseases
ĠSpeaker
ĠOfficers
Ġsky
83
ĠBE
Ġcategories
Ġindicate
Ġru
ĠSony
ĠDun
ocks
Ġconcrete
ĠMadison
ĠSab
IV
Ġobserved
ria
Ġinterim
Ġencounter
ista
Ġanger
Ġrapid
mail
Ġdestination
ĩ
Ġbreaks
rell
ĠChase
Ġattorneys
Ġrolled
ĠSprings
ĠVillage
TO
HS
Ġcampaigns
ologist
ĠTax
ĠIII
Ġteach
Ġprovision
Ġrem
Ġshirt
Ġdeployed
Ġguidelines
Ġav
zer
Ġrushing
94
place
Man
Ġdivided
ĠGun
Ġwindows
Ġcomponents
aba
ĠSwitzerland
election
ĠTampa
ĠAri
Ã¡s
Ġhighway
Ġacres
Ġcrown
known
Ġinquiry
url
Ġexpertise
Ġpraised
yer
Ġconclusion
Ġabortion
Ġlady
Ġtribute
Ġunveiled
Ġbeaten
TE
ĠMot
unk
Ġtriple
Ġforcing
ĠTickets
uit
Ġiron
Ġscientific
ĠIP
Ġdiagnosed
Ġocean
wide
ĠCowboys
LC
Ġmethods
ĠFind
ĠDean
Ġfundamental
ĠGill
Ġfeelings
IO
hu
Ġfeedback
ote
Ġduo
fully
get
Ġproof
story
Ġlongest
Ġshops
ĠJong
ĠCro
ĠHawaii
91
ĠJake
ĠSusan
Ġsubmit
rav
Ġmodest
Ġlit
Ġattempting
Ġsits
Ġaddressing
93
ĠBi
Ġlying
ĠOrganization
ĠOak
oli
Ġfatal
Ġmountain
val
lu
ĠMaine
Ġcharging
Ġresigned
illo
Ġrecommendation
party
ĠWeb
ĠPanthers
Ġnoise
ĠBrussels
awa
Ġambassador
Ġaccessible
ĠCalgary
idd
ĠAirlines
gr
Ġnu
roy
ĠMars
ĠPoland
ĠJerry
ados
ĠRico
ĠMir
ĠFin
ious
Ġpacked
Ġinsider
President
ĠBull
ĠYemen
ĠConnecticut
Ġ73
Ġdepartments
Ġorganic
ĠSummer
ĠBet
ste
zo
rat
Ġalliance
Ġintervention
wan
ĠOR
Ġdefined
ĠÃł
ĠChiefs
Ġknocked
ared
Ġholes
Ġpulling
ĠTodd
ĠJamie
ĠSher
Ġsignature
ĠSur
Ġgym
ĠVladimir
ĠThailand
Ġgaming
Ġsaving
ceive
82
ĠBern
ĠDid
Ġhardware
ished
Ġconspiracy
ANS
ĠIntelligence
Ġassembly
Ġ101
Ġconcise
ĠManhattan
Ġbelief
Ġsurge
Ġdeserve
Ġconsistently
ĠNor
okes
ðŁ
ME
ĠAsset
Ġsubstance
Ġprefer
Ġburning
ĠNik
ook
ĠPinterest
Ġboyfriend
ĠHal
ĠMerkel
Ġintroduce
ĠLinkedIn
ĠFull
ĠFarm
Ġchildhood
ĠTransportation
Ġterrible
du
Ġintention
Ġseemingly
elle
Ġfoods
Ġtitled
Ġdual
Ġimport
Ġdeveloper
UL
ington
ĠDelta
?'
iness
Ġquit
ĠGarcia
ĠSri
Ġhip
ĠBrazilian
elt
ively
Ġstructures
Ġlabour
Ġneighbors
Ġtill
Ġsoil
Ġdropping
Ġnominee
Ġmeets
92
rant
isa
Ġluck
aa
jet
ĠTor
ĠCrime
Ġlane
Ġflu
Ġlaunching
ĠAutom
aks
Ġuniversities
Ġpollution
ĠAdvis
ĠMall
ls
Ġdeeper
Ġrepeated
Ġmeanwhile
Ġchip
Ġoutlets
Ġliked
Ġsal
Ġwelfare
ago
Ġmakers
ving
fer
Ġovercome
mb
Ġshocked
akers
Ġnonprofit
Ġdonated
eral
Ġresume
Ġlogo
Ġsubscription
Ġ74
ela
Ġaspect
html
Ġsorry
Ġupgrade
Ġstance
Ġfr
Ġpapers
Ġattacking
Ġmeaningful
81
ĠWeinstein
Ġcreates
Ġhonour
ĠReply
oph
Ġmarch
Ġsmile
Ġcomparison
will
ĠSanchez
Ġvoter
Ġtheory
Ġequally
ĠRoger
Ġperfectly
Ġlanding
Ġbillions
ĠBloomberg
Ġpermit
Ġfinals
Ġracial
Ġpregnancy
iled
ĠFederation
Ġforest
Ġtag
aul
Ġdrinks
Ġ("
ĠMobile
Ġtouched
Ġclock
Ġreg
Ġasylum
igan
Ġsenator
Ġ99
ĠKumar
Ġskill
Ġ1998
pa
ĠAf
Ġmood
ston
Ġhang
ĠMPs
Please
ĠEve
Ġdocumentary
Ġpersonality
ĠCast
Ġdiscount
bing
ĠBoeing
Ġdepend
Ġcrossing
EX
Ġsucceed
Ġhumanitarian
ĠMuhammad
Ġwages
Ġcolumn
Ġexternal
Ġstatistics
ĠTODAY
Ġtrips
Ġta
Ġpenalties
Ġwriters
Ġshipping
ĠIndians
Ġsalt
ĠIndustrial
ĠYankees
ĠDen
Ġrough
Ġbarrels
ĠHor
bert
ĠDep
Ġresign
97
Ġballs
ĠJun
ĠBab
Ġassociate
Ġstring
Ġhub
Ġorgan
ĠMarshall
ĠFIFA
ĠMun
ency
research
Ġpeers
Ġtall
ĠGoldman
Don
Ġparade
Ġparks
Ġdet
Ġdisappointing
Ġreflects
ĠLakers
Ġfiles
Ġrelatives
ĠUSD
ĠArticle
Ġcustom
ĠCarlos
Ġtracking
Ġmaintaining
ĠCur
ardo
ĠSkip
Ġattitude
Just
Ġinstitution
Ġnarrow
Ġsnap
Ġenterprise
Ġdrives
Ġ77
Ġcrop
Ġvirus
Ġcelebrity
Ġeconomies
ued
Ġsum
ĠDubai
ĠInsurance
Ĺ
ury
ĠUnfortunately
Ġclosure
ota
ĠPhilip
oms
Ġinvestigated
Ġgenerations
ĠETF
ĠKeith
ĠLater
isk
Ġpreferred
Ġdefault
Ġtowns
ĠRod
ĠDie
Ġintegrated
Ġacquiring
Ġvoices
Ġser
Ġpresents
ĠBR
ĠEmergency
Ġreligion
HA
Ġresponding
ĠThings
Ġbeef
ĠWithout
urd
ĠCarl
Ġadministrative
ĠWhich
Ġchallenged
Ġcooking
ivid
ĠFer
Ġtremendous
ĠTerry
iri
CS
ĠJunior
ĠReddit
Ġtea
Ġaccounting
lan
Ġdetention
Ġreplied
SI
ĠHel
ns
ĠProf
Ġramp
ĠConservative
Ġattendance
Ġspecialist
ĠFinal
Ġadvertisement
Ġacquire
ĠWhatsApp
Ġworkforce
ĠCalif
Ġspeakers
ĠEPA
Ġconviction
hire
ĠFisher
ĠIntel
Ġbin
ĠWas
Ġearth
vi
Ġhurricane
Ġholidays
Ġassume
Ġinvolve
Ġdynamic
ĠGre
Ġitem
Ġpound
Ġanxiety
ĠPrint
rop
Ġautomatically
Ġdiscrimination
ĠLam
ĠColl
Ġimpressed
Ġinvolves
ĠLes
ĠTri
ĠLook
ĠiOS
Ġgrab
ĠAngel
Ġstops
ĠPay
ĠECB
Ġbunch
Ġletting
ele
ĠAdditionally
Ġboards
NC
Ġtragedy
Ġpink
Ġgonna
ones
Ġrev
ĠIndependent
ĠCambridge
ĠPence
Ġprosecution
Ġdeputies
ĠAhmed
Ġlows
ĠAmy
ĠBuilding
mark
Ġsmooth
Ġsole
Ġwanting
ĠHeart
Ġobtain
ĠBus
Ġexchanges
friendly
Ġlabel
elect
ĠCompanies
owing
ĠCB
RI
ĠMaster
Ġliquid
ĠDanny
Ġproceeds
ĠLaura
card
Ġtears
Ġexploration
Ġdepression
ken
ĠFe
Ġlending
ĠYouth
ality
NS
Ġmoon
ĠTaiwan
Ġstruggles
Ġdiscovery
Ġqualify
Ġwireless
alia
Ġwitnessed
Ġheight
ĠGuy
left
KE
Ġfoul
ĠMohammed
Ġgrass
ĠNon
Ġswim
Ġbrilliant
you
ĠFlynn
Ġsinging
eria
UT
ĠMcCain
ĠSep
ĠWars
Ġburden
Ġpas
Ġabandoned
Ġint
ĠTurner
Ġcollective
ĠEnvironmental
ĠStudents
Ġofferings
Ġresignation
Ġexplosion
ĠKoh
ager
Ġthrows
Ġasks
light
Ġanyway
Ġyard
Ġcarrier
Ġwaves
backed
TR
oud
Ġbreach
Ġdated
Ġdressed
ĠDodgers
oles
Ġ78
Ġreads
Ġpredict
ĠJerusalem
ĠPT
Ġcrack
yan
Ġnights
eline
Ġconvinced
Ġlock
Ġcarefully
ĠMercedes
Ġultimate
Ġdist
Ġslight
ĠEdwards
Ġswing
iling
Ġknife
ĠNashville
IF
inder
udd
Ġsenators
ĠFurther
ĠXi
Ġstr
ĠOd
days
Ġcomm
Ġverdict
Ġconfirmation
king
ĠCS
Ġadvocates
Ġpride
Ġmemorial
ams
erman
Ġteenager
ĠNeil
uts
Ġsoul
see
post
Ġchest
fire
ĠLynch
Ġpeaceful
OND
ĠIndustries
ĠJuan
Ġrestore
Ġreliable
ming
agan
Source
ĠCabinet
Ġremarkable
ĠTrudeau
ĠEs
Ġintegrity
ove
fe
Ġproceedings
Ġconnections
Ġunprecedented
ĠGlen
ux
Ġearning
Ġingredients
Ġnominated
ĠBangladesh
made
Ġlessons
Ġbreakfast
ĠRelations
Ġloose
Al
Ġupgraded
ral
ĠPage
oto
ĠQueensland
Ġprocedure
ĠSmall
Ġrespective
Ġpictured
ĠBas
Ġpreparation
ĠMyanmar
Ġdonation
Ġvisible
iest
ĠBroadway
rick
ĠSchools
Ġarrests
ĠJessica
ĠBengal
Ġhell
Ġannouncing
Ġmail
ĠMcG
two
rest
OD
ĠBradley
Ġdoubled
Ġpledged
Ġcomeback
Ġextraordinary
Ġslide
Ġassess
Ġagricultural
ĠKay
Ġvendors
Ġnarrative
Ġreviewed
ĠPass
Ġinspiration
ĠHunter
Ġcalendar
ĠDiamond
Ġremoval
ners
ĠKap
Ġconsent
Ġvisual
Ġcheese
ĠTher
ĠFR
ĠShanghai
iah
ĠCole
AK
Ġranking
Ġcook
Ġhalftime
ĠStars
Ġroutes
aim
Ġestablishment
ĠMug
Ġsurvivors
urg
ĠBrett
Ġunexpected
ained
Ġrarely
ĠGall
Ġadvocate
ĠNad
Ġ911
Ġracist
erer
ĠRev
ĠSection
Ġhelpful
CT
agg
Ġgovernance
Ġfelony
Ġoptimistic
Ġelectoral
EG
town
Ġdaughters
Ġanswered
Ġthin
ĠClassic
Ġshareholder
ĠBlake
ĠFla
Ġparliamentary
dy
Ġcommented
Ġtri
Ġglobe
Ġmandate
Ġslipped
ĠTower
Ġoperated
gers
Ġassured
ĠMartinez
Ġdesigns
ĠModel
Ġstakeholders
Ġdefended
Ġseniors
Ġvacation
Ġglobally
ump
Not
Ġclip
Ġarticles
BR
km
ĠFront
PL
Ġadoption
Ġsudden
Ġframework
Ġhanging
gl
ĠSel
Ġmoderate
Ġreverse
income
cor
ĠGB
Ġphysically
Ġtransparency
ĠElectric
Ġrefugee
profile
iva
ately
ĠAC
Ġtransferred
Ġaffair
ĠAlaska
oria
ĠChange
Ġrepeat
Ġscreening
ender
ĠCas
ĠDav
Ġfocuses
Ġcommissioner
Ġupside
ĠKeep
ĠBlues
ently
Ġaut
Ġexperiencing
aman
Ġapprove
Ġmile
Ġcheaper
ĠWind
ĠStore
Ġgrabbed
Ġsons
Ġfighter
Ġum
ĠBased
don
Ġconstitution
finals
act
¢
Ġmill
Ġorganisations
ĠToyota
Ġyuan
Ġterrorists
Ġforth
Ġavailability
Ġentrance
Ġvolumes
Ġmult
plus
ĠColumbus
ĠSummit
Ġbabies
ĠMur
ĠGray
ĠChar
ĠButler
Ġpose
ĠNatural
ĠAtt
Ġdecrease
Ġtens
kt
Ġminds
Ġimpacted
Ġchapter
ĠOp
ĠHarrison
ĠRodriguez
Ġethnic
Ġtravelling
ĠBond
ader
core
Ġgallery
founder
ĠVill
Ġdecent
ĠHistory
ĠInt
ĠNa
ĠHad
Ġmainstream
ĠTs
Ġbottle
sen
Ġrecession
Ġsophomore
Ġsilence
cc
Ġqualifying
Ġcomplained
ĠRad
Ġactively
Ġbacks
ĠMusk
Ġcareful
Ġmeals
ĠDor
Ġmess
ĠBelgium
Ġke
ĠLopez
Ġbow
Ġhelicopter
was
Ġstone
kins
Ġunlike
Ġcollision
ĠAlt
HP
ĠMason
has
Ġclimbed
Ġindication
Ġhotels
Ġloud
ĠMilan
kes
Ġbadly
Ġtrials
Ġimpacts
ĠJane
Ġcrossed
Ġdiscussing
ĠSM
Ġpopularity
ĠWant
fall
Ġartificial
ĠBu
akh
Ġdominant
gov
Ġpremier
Ġexecution
gate
Ġswimming
Ġchat
Ġdevastating
acking
Ġreception
urt
Ġtheater
Ġgather
Ġtear
uro
Ġdemocratic
Ġrebels
Ġlifetime
Ġradical
uan
Ġtechniques
ache
ior
Ġcamps
Ġtelephone
ĠDublin
ĠBrand
ĠMarcus
aun
ĠRec
Ġ82
ban
Ġsafely
aku
aki
Ġbankruptcy
FF
Ġformat
Ġattached
ĠFame
ĠEdward
Ġmerger
ĠRepresentatives
izes
Ġhidden
Ġval
zz
Ġexcess
Ġscope
Ġdivorce
Ġburn
Ġrequirement
BB
ĠHand
Ġcons
Ġrisen
Ġtwitter
Ġoffseason
ĠSometimes
ĠInf
ĠAng
uer
report
Ġdreams
Ġ700
ips
ĠDream
Ġgifts
Ġsomehow
ĠTur
ĠRachel
can
Ġlog
ĠMedicaid
Ġles
Ġtired
ĠArkansas
Ġliquidity
ĠPhillips
ĠBTC
Ġhide
Ġpun
ĠRun
lyn
ĠUC
ĠDesign
ĠDev
Ġvaluation
Ġreveals
ĠChild
other
Ġposed
lee
Ġships
ĠTrue
Ġdescribes
Ġrunner
bro
Ġankle
Ġod
ĠAnnual
CL
Ġoverhaul
ned
Ġbold
Ġmo
ĠFalls
Ġemployed
ĠGro
Ġflash
ĠTD
Ġnervous
Ġintegration
Ġsmartphones
Ġmovements
nie
ition
ĠThird
Ģ
Ġmetres
Ġeconomist
omp
Ġteens
Ġeveryday
Ġinterviewed
Ġbriefly
],
uke
ĠFOX
Ġunderlying
ĠLuc
Ġcourses
ss
amed
°
ju
ĠBanks
Ġoutfit
illing
Ġtrafficking
Ġurging
Ġbelt
Ġrid
CP
Ġelderly
ĠGrowth
Ã¡n
ĠSn
Ġsurrounded
Ġsisters
ĠIslam
Ġsynd
ĠCosta
di
ĠKl
Ġmanufacturer
holders
Ġelement
Ġload
Ġbooked
Ġaccompanied
ĠChamber
Ġbriefing
Oh
imi
ĠDefence
ĠCurrently
aking
Ġhandled
ĠCD
ĠBenjamin
Ġpocket
ĠKashmir
Ġlighting
aps
Ġ1997
ech
Ġaddiction
Ġbases
Ġpriorities
Ġhardly
ĠQuebec
ĠEarn
IES
ĠZach
ĠAlong
MI
Ġins
ĠRogers
ĠKan
ĠFuture
Ġtriggered
ĠUnit
Ġweighed
Ġpointing
Ġchocolate
ĠBrowns
ĠISIS
Ġgoalkeeper
Ġsaves
ĠAndre
burn
ĠCont
ĠNetherlands
Ġpolitically
ĠAshley
ĠWhit
aded
PH
Ġborders
ORE
Ġally
Trump
istan
ĠHunt
ĠCancer
ĠGrace
ĠTottenham
Ġ1960
ĠMarg
ĠBryan
ĠAgain
acing
Ġarguments
ĠSouthwest
Ġvocal
Ġjudgment
Ġengaging
Ġadopt
Ġrental
Ġlinebacker
ĠKardashian
Ġepisodes
..
Ġunt
Ġvowed
Ġ79
ule
Ġtransit
Ġoffshore
Ġsuppliers
Ġarguing
Ġsatellite
ĠLind
ĠTaliban
Buy
ĠCaribbean
ĠBarry
Ġauthors
ĠWolf
Ġviewing
ĠCubs
From
Ġ%
Ġcurrencies
Why
ĠBroncos
Ġtrick
Ġdiesel
ĠLiberal
FL
Ġtopics
Ġretain
ĠLiberty
Ġacquisitions
ced
Ġfre
Ġfleet
Ġcopper
ĠPot
jen
ĠElliott
ĠPyongyang
Ġobject
ĠUse
Ġmutual
MP
Ġev
Ġdeny
ĠEveryone
lling
Ġpays
Ġdrought
Ġcorn
Ġworkplace
rig
ĠMn
Ġadvisory
ĠCat
Ġchronic
ĠSteelers
Ġboxes
ĠNap
Ġdemonstrated
ĠTournament
Ġsymbol
ĠAfghan
ĠTan
ired
ĠEv
ĠConsumer
Ġmoral
ĠAdditional
Ġwebsites
Ġoccasions
Ġfate
Ġpitcher
Ġtaxpayers
Ġdeemed
ĠLibya
Ġpriced
Ġdistributed
ĠForum
Ġrice
Ġbloc
Ġprovisions
agh
Ġpen
Ġattracted
ĠEdmonton
Ġthousand
Ġpainting
Ġil
Ġcourtesy
Ġeliminate
Ġacc
Ġmeters
Ġreflected
Ġcomponent
Every
Ġsells
Ġfault
Ġburned
ĠKirk
ĠAnna
Ġappeals
Ġeggs
Ġfrequent
Ġtrigger
Ġrevised
ĠAngela
Ġ81
Ġsingles
Ġviral
Ġworries
ĠShould
profit
Ġraises
ĠBryant
ĠProduct
Ġtenure
Ġdiabetes
Ġcolour
azz
ĠGirls
Ġpractical
Ġblind
ancing
pictured
Ġfinale
ĠElection
Ġathletic
Ġpromoted
Ġflowers
Ġtrains
ario
Ġsufficient
IE
Ġexamples
Ġshed
Ġbirds
Ġchaos
Ġwound
Ġrocket
Ġwet
Ġsample
ĠNag
ĠOliver
Ġscrutiny
ĠSeven
ĠRoman
ĠFred
Ġweird
ĠTam
ĠSupport
ĠNathan
Ġstudying
Ġintroduction
Ġtons
cer
aus
ION
Ġcritic
ĠAh
alo
pur
Ġstorms
ĠMission
Ġcredits
Ġgrants
Ġcomp
Ġhearts
part
Ġpin
Ġsubsequent
Ġmad
ĠSacramento
woman
from
Ġoutcomes
Ġoldest
Ġdesperate
ĠTal
ĠDJ
ward
Ġaudiences
Ġimportantly
ĠEmily
sk
ĠHeat
ĠType
ĠPeace
Ġsuspicious
aly
ĠGET
ĠCAP
dis
ĠIraqi
ĠReed
Ġstrange
ĠParent
900
Ġglad
ĠTroy
ĠShort
Ġheritage
Ġarriving
ingly
Ġtransformation
Ġlease
Ġcollapsed
cha
ĠPatrol
Ġcomputers
Ġprinciples
Ġsporting
ĠHughes
mile
ĠCit
Ġdrilling
ĠBox
ÃŁ
bre
ĠOverall
Ġopioid
Ġdelighted
Ġhonored
ĠCold
Ġunions
ĠCou
ĠCircuit
Ġblast
sson
ĠHernandez
ĠLooking
Ġlegally
ĠWalmart
bridge
Ġmat
rad
ids
Ġdining
Ġrebound
abad
ĠRom
Ġimpose
ĠAlpha
ĠWeekly
TER
ĠJam
Ġabsolute
Ġinventory
ĠBilly
ĠKaren
ĠFriends
ĠCent
ĠVikings
ĠMuch
cell
ads
Ġph
Ġkiller
ĠMembers
Ġshooter
ĠInvestigators
ĠJoshua
Ġparticipated
Ġinnocent
ĠRichmond
itor
ĠDal
ĠOperator
Ġmakeup
Ġconf
ĠNEWS
ĠDef
Ġchase
ĠCost
mont
":
Ġarrangements
stein
Ġretire
ĠLuis
Ġrenewed
ĠTownship
Ġchecked
arts
ĠCash
Ġcentres
chers
ĠSolutions
Ġlegend
ige
most
osed
ĠPor
Ġpremiere
FS
Ġmissiles
ĠLang
Ġsing
best
Ġtail
Ġriders
Picture
zen
ĠKent
Ġtransform
Ġwildlife
Ġsmoking
Ġpreseason
ĠLucas
ĠAnne
owski
Ġtape
Ġdisplayed
Ġforum
Ġanonymity
ĠIndianapolis
hips
acc
ĠMoreover
lers
area
ĠIndeed
Ġconducting
Ġinfection
Ġdealt
OB
asing
ĠGaza
itter
ĠKa
Ġhopeful
ĠSnow
Ġentitled
Ġaffecting
Ġeager
Ġcircle
Ġlaugh
ĠProsecutors
ĠDur
Ġbarriers
ĠPoll
oun
ĠPalm
chi
Ġsamples
Ġcompromise
atter
Ġenormous
ĠÃ©
coming
ĠPharmaceutical
Ġrank
Let
Ġtransgender
ĠCloud
FO
ĠBor
Ġbonus
Ġordinary
ĠPres
ĠHIV
ires
OSE
Ġdancing
ĠHD
Ġversions
Ġ88
rate
Ġtackles
Ġknock
ĠEmma
Ġmotivated
ĠBennett
ĠBurn
Ġgrid
Ġembrace
ĠSpurs
Ġflows
ĠGer
Ġsponsored
Ġsurvival
ching
Ġ1995
Ġreward
Ġdepends
Ġpostseason
Ġloaded
Ġneutral
ĠPop
BL
Ġrevolution
ĠFreedom
Ġrecovering
Ġrequiring
ALL
ARE
Ġmini
lt
ĠFDA
Ġcarpet
ĠPrior
Ġadmission
ĠEver
ĠTribune
ĠRonaldo
Ġthick
Ġlanes
Ġ84
ĠMemphis
Ġopt
BO
Ġfaculty
ĠChad
ĠSUV
ĠHen
Ġeste
ĠHu
ĠAgriculture
store
ĠDrug
inter
Ġ1996
ident
Ġbackup
ĠHonda
ĠHope
oes
ums
amer
Ġbreath
Ġ110
Ġjoke
ĠAld
Ġwondering
ĠAssad
ĠRem
Ġfundraising
pot
Ã¨
Ġquestioning
Ġpent
ĠMoney
ĠMedicine
wick
ĠKnights
Ġbatting
ĠMos
Ġdesignated
isse
Ġspotlight
Ġlake
Ġcaution
Ġinmates
Ġlap
CE
ĠJavascript
ĠDeutsche
ĠFargo
Ġguaranteed
borough
Ġfunctions
ĠElementary
ĠChuck
Ġpitched
ĠKrist
Ġsteal
Ġchips
Ġalarm
Ġbeloved
scale
Ġassaulted
ĠPentagon
Ġtemporarily
Ġ93
Ġ>
ĠPortugal
ti
HL
Ġdecreased
Ġexistence
Ġisolated
Ġdeposit
Ġstudied
")
Ġtrophy
ĠBrooks
Ġbattling
Ġweaker
ĠPrivate
ĠAccess
Ġvirtually
Ġshortage
Ġgaining
Ġbathroom
TON
Ġconcerning
Ġengineer
Ġbread
Ġdemonstrate
ĠDh
Ġhorses
Ġintersection
Ġcolors
Ġdelegation
Ġnotable
Ġwithdrawal
ĠDennis
Ġlocally
Ġcoastal
Ġcomply
ĠMoh
ĠAlbert
Ġclosest
ĠCITY
Ġ83
Ġcancelled
ĠðŁ
Ġsharply
RS
Ġproductivity
Ġbasket
SS
Ġadmit
ool
ination
ĠBB
Ġsur
ĠSteel
ĠTed
ĠPac
Ġpatterns
Ġlisting
Ġreplacing
ĠPradesh
Ġroots
Ġbroker
ĠWriting
Ġsued
Ġorganised
ĠThanksgiving
ĠNOT
Ġjournalism
uel
Ġkilometers
Ġhunt
berry
ĠMother
Ġlegitimate
Ġinput
ĠRel
ĠGuardian
Ar
Ġtransported
Ġbedroom
ashing
Ġbats
Ġcleaning
Ġwrapped
Pacific
Ġfence
Ġtestified
Ġ1994
Ġinterference
Ġmatching
Ġexpression
eta
ĠSpencer
Ġstrategist
who
Ġvictories
Ġ2022
Ġstakes
Ġbuses
ĠHousing
Ġeditorial
Ġ86
ĠBishop
Ġfrustrated
Ġappearing
http
IGHT
Ġmemo
Ġinsiders
Even
Ġclassroom
Ġchef
aining
].
ĠMcD
Ġ87
ĠPunjab
Ġancient
Ġresolved
Ġdying
Ġdestruction
Ġgoverning
Ġrestructuring
ĠPick
Ġmunicipal
Ġengines
ĠHudson
Æ
Ġrepeal
standing
Ġbound
ĠOS
ĠCommonwealth
Ġdescription
Ġhouseholds
Ġmal
Ġstopping
equ
Ġregulator
Ġcontaining
Ġremoving
Ġwithdraw
Ġburied
Ġlists
ĠGil
Ġlowered
Ġformally
ĠRound
asi
¥
lett
Ġprogressive
ĠFalcons
ĠRaw
gun
Ġcontributing
Ġhunting
Ġvalid
Ġexception
ĠPlayers
ĠTra
Ġracism
hing
chen
Ġdifferently
Ġchampionships
ĠEng
ĠNO
ĠAuto
ĠErdogan
iding
Ġwarming
Ġcivilian
ĠDam
Ġfantasy
ĠNav
itions
ĠDrew
ĠNancy
Ġtrapped
ĠRussians
ĠIC
Ġflexibility
ular
Ġviolated
ipped
Ġgarage
ĠDeep
Ġpraise
ĠLab
ĠPlayer
Ġjudicial
Ġdonate
Ġseparated
Ġreleases
nik
Ġexplanation
aph
Ġloyal
Ġstrongest
ĠShar
Ġrescued
Ġambitious
Ġclimb
Ġscared
Ġignored
cut
Ġstole
Ġweakness
ĠRidge
oa
LA
Ġdep
ĠPowell
Do
Ġprotein
Ġreiterated
ĠCox
aling
ĠUnlike
ĠKane
ĠMcConnell
Ġshowcase
Ġuniform
ower
Ġdiscover
stop
ipper
Ġtreatments
Ġgrocery
Ġsubscribers
lock
ple
Ġflew
ania
Ġstepping
ĠSoviet
Ġconsultant
ags
ĠLim
Ġ91
ĠCode
ports
box
Ġlakh
Ġreminder
ym
ĠTravis
Ġpure
now
ĠVR
Ġachievement
ĠEmirates
ĠThunder
Ġmerely
ĠCa
ĠAverage
ĠDa
Ġtopped
ĠCurry
Ġchemicals
Ġamendment
ĠBorder
ĠBat
Ġ130
Ġprogramming
Ġtele
ĠKarl
Ġaveraged
ĠSpe
world
PG
Ġfights
ĠPrincess
ĠCIA
ĠAbe
Ġacted
only
Ġinsight
Ġathlete
ĠTar
commerce
Ġaveraging
cr
ĠPalestinians
Well
Ġbull
Ġchoosing
Ġsurely
ĠSecret
Ġteammate
ĠAmendment
ĠBirmingham
Ġexcitement
strong
ĠSin
Ġdamages
rated
Ġrankings
Ġconservation
home
erm
ield
Ġdisorder
acher
Ġnaturally
atur
Ġpackages
Ġapproaches
icks
ourn
Ġodd
Ġshore
ĠBeing
Ġmagic
Ġtourist
largest
Ġwhenever
Ġlenders
Ġegg
ĠChair
Ġlets
Ġwarnings
į
Ġpol
Ġdrag
ĠAmb
ĠCle
ĠLouisville
ĠShaw
lands
Ġanthem
ĠTrail
Ġaccepting
anger
good
ĠBroad
ĠLebanon
ĠMillion
ĠHenderson
Ġwh
Ġdust
Ġ92
ĠMend
Ġchecking
ĠCow
sized
Ġautomatic
Ġcelebrates
Ġarena
Ġfinger
ĠHarvard
Ġfrustration
Ġstrict
Ġpreserve
Ġsleeping
Ġconverted
Ġinsights
Ġtra
Ġjailed
Ġchamber
Ġtoxic
ading
ĠTriple
grade
ĠRest
ĠHoly
oper
Ġdesk
Ġmatchup
Ġsteep
ĠGot
lay
ĠCab
aked
ĠFoster
Ġrunners
ĠNA
Ġdestroy
Ġsupportive
ĠRacing
Ġtrademark
Ġjacket
Ġhorror
ĠAle
Ġass
Ġsch
abb
Ġplanes
Ġimpression
ĠEarly
ĠPompe
Ġking
Ġsilent
ĠCuba
Ġmedication
ences
list
ailing
WA
ella
Ġprop
Ġhalt
Ġslowing
ĠFoods
Ġanonymous
kh
Ġtraveled
Ġcommunicate
Ġter
ĠHockey
ĠRobin
Ġswept
Ġclinic
ration
len
Ġau
Ġcareers
ĠSound
Ġaddresses
China
ĠSr
Ġexhibit
ĠMotors
ĠIl
Ġinstall
ĠOkay
Ġ>>
hood
stand
Ġaudit
Ġcake
Ġflames
bel
ĠMust
ĠManafort
Ġcommodity
night
ĠRoom
ĠLanka
Ġcommander
ln
Ġdatabase
ĠSet
Ġgraduated
ĠTarget
Ġoutbreak
rou
ĠPope
ĠEqu
Ġpolling
Ġdig
Ġbrutal
ĠBarn
Ġdefinition
Ġpit
Ġpickup
ĠBitcoin
ĠReid
Ġloving
ĠHerald
ĠCanadians
Ġneighbor
Ġdies
ione
ĠRef
big
Ġguards
including
ente
Ġpartially
Image
Ġbulk
Ġslot
ĠNorthwest
ĠBarclays
Ġairlines
iver
isi
Ġsubsidiary
Ġcont
ĠDaniels
Ġscript
Ġunfair
Ġscreens
Ġprof
ĠIrma
Ġ1992
Ġmandatory
ĠSant
Ġsuspicion
NES
ĠLauren
igen
Ġprevention
Ġtension
ema
Ġtasks
Ġshake
Ġexplosive
Ġaffects
Ġmum
ĠDog
rer
Ġopted
Ġtrio
Ġlesson
Ġautomotive
where
ĠMontgomery
Ġcouples
Ġ89
AF
Ġinfo
ĠForm
Ġspectrum
Ġbands
Ġokay
Ġstroke
ĠNetanyahu
Ġwealthy
ĠAround
ĠGlenn
sec
there
ickets
ĠBudget
ĠBMW
Ġflagship
rier
Ġpodcast
Ġpursuing
Ġpos
ĠIslands
ĠUrban
page
Ġemotions
ided
Ġdividends
Ġboom
Ġaccusing
ird
ĠNam
ava
Ġwishes
ĠNy
ĠStanford
Ġcriteria
ĠJews
Ġengineers
Ġaccuracy
Ġdisplays
Ġdeserves
ridge
omm
aur
Ġdramatically
Ġunity
speed
Ġdeclining
Ġpermits
ĠKn
Ġconsulting
aux
ATE
ĠWat
ĠEditor
sy
urn
ĠUsing
asc
ital
Ġcre
quality
Ġce
Ġenemy
Ġoffence
icket
ĠDick
ĠTH
ĠChampionships
Ġoverwhelming
rib
ku
rap
Ġhomer
acion
member
erv
aney
MB
eded
Ġpunishment
Ġnegotiate
ĠFile
stream
ĠHur
Ġnose
ĠFab
iter
Ġpainful
ITY
eren
Ġcollecting
Additional
Ġentrepreneurs
bal
Ġexploring
Ġguitar
Ġpartnerships
Ġfurniture
Ġauthorized
Ġeasing
shirt
ĠGross
Ġpolitician
ĠSimpson
Ġdrone
ĠKatie
Ġprofitability
ĠNHS
ĠSierra
ĠNorway
ASHINGTON
ific
Ġcondemned
team
ĠNebraska
Ġthrilled
iller
Ġpatrol
ĠWR
orm
Ġspectacular
ĠKnight
ĠTravel
nam
Ġmuscle
ĠRain
ĠColombia
Ġnursing
Ġmigration
ĠMitch
Ġreleasing
ĠBesides
ĠMul
Ġheadline
Ġcontemporary
Ġdev
ĠChan
Ġindicates
ĠAp
ĠLt
ĠMarvel
Ġremembered
Â®
ĠForces
ĠColin
ĠGabriel
Ġobjects
ĠRHP
kar
ĠKo
Ġsignals
Ġinner
real
RO
Ġromantic
cat
ĠKel
Ġgut
ĠBoys
Ġyoungest
ĠCeltics
Ġslated
Ġremind
Ġproductive
set
Co
ĠBailey
Ġrenewable
ĠCarson
ĠDj
ĠKos
Ġurge
Ġfin
Ġpursuit
ĠCON
ĠChapter
Ġpal
Ġgate
ĠPackers
ĠReports
ĠRugby
ĠMasters
MO
Ġ98
Ġcatches
ĠAgreement
ĠTillerson
ĠIce
Ġrumors
ĠLeonard
ĠDolphins
ĠLP
top
ĠCrist
ĠHon
Ġblaze
Ġrhetoric
ands
ady
David
igh
Ġbuzz
ĠStrong
Ġshocking
ĠRh
Ġnegotiating
Ġtender
ĠJohnny
ĠMario
Ġ97
ĠHeritage
Ġexists
Ġprayers
Ġlengthy
Ġsafer
ĠHalloween
ĠJared
ĠConnect
Ġbump
Ġstrain
Ġfilling
Ġtrauma
Ġcompleting
cht
Ġkillings
anne
GE
ĠRescue
Ġdealers
Ġlocals
ĠVictor
Ġtragic
Ġdelivers
orts
Ġrugby
Ġinstallation
asa
ĠBart
Ġjournal
school
ĠCome
ĠVeterans
Sun
Ġcrowds
Ġtransparent
Ġimplications
ĠHuawei
sex
Ġrallied
Ġresponses
Ġdebris
Ġconvention
Ġmothers
BE
ĠRoute
Ġrebel
ĠEmmanuel
aster
Ġunderstands
pound
ĠCastle
Ġ2021
rik
ĠGR
Ġconvince
ault
Ġpassionate
ĠSciences
Ġarrives
idad
Ġcelebrities
ends
ĠFans
Ġdish
ĠCorps
hat
Ġemployer
ĠHy
Ġpowered
Ġgrandmother
ĠFL
oured
VE
ĠInst
ĠPerez
Ġtune
Ġcitizenship
Ġignore
Ġdoubles
IB
Ġprogrammes
inda
Ġentities
ĠInterior
Ġprompting
Ġwire
Ġtheatre
%)
Ġheels
ĠJu
Ġdeposits
Ġtrash
mond
she
iana
Ġislands
ĠTommy
Ġpub
Ġdiscipline
ĠSW
Ġmusicians
Ġembassy
ĠQB
hander
UES
ĠFerguson
Ġblocking
ahn
Ġfines
Ġtactics
Ġbullet
Ġequipped
Ġescaped
ĠSil
ĠPack
ĠAthletic
ĠMic
ĠDoes
ĠCarr
ĠChargers
ĠKyl
Ġzones
µ
iki
Ġgreatly
ĠMD
Ġimmigrant
ĠConstruction
ĠBorn
iment
ĠWade
Ġvisa
Ġgenuine
Ġelectronics
ĠSat
Ġsponsors
ĠMontana
Ġspell
ĠSachs
ĠEt
Ġfoster
Ġlocker
Ġexplaining
ĠAge
Ġgunman
Ġsauce
Ġcry
Ġstimulus
Ġarray
Ġcompare
Ġboats
Ġext
iders
ĠAst
ĠParks
ester
Ġ94
Ġrelating
Ġvegetables
Ġaccountable
Ġhyper
ĠWim
Ġnewest
ĠRome
ĠChancellor
CBS
Ġbusinessman
ĠDelaware
Ġlands
court
aria
Ġapproaching
cker
ĠSalt
ĠMak
Ġtreating
Ġsubsequently
ĠEll
xton
Ġ180
Ġdetermination
ĠSalman
ĠJoel
Ġclassified
Ġspan
Ġearthquake
ranked
Ġ96
ĠTiger
Ġadvocacy
mit
Ġcolleges
ĠYeah
ĠCaptain
Ġorange
Ġprojections
Ġelectrical
ĠMA
olog
ĠNewcastle
oppers
Ġrepresentation
Ġlawsuits
just
aced
ĠRace
ĠAqu
ĠBills
Ġexclusively
ĠProfile
Ġhometown
ĠStan
Ġstarring
Ġdeciding
ĠRating
ĠMedicare
ĠTransport
Ġmystery
ĠTa
ĠPad
ĠSwedish
ĠCarroll
about
Ġtorn
Ġnurse
NE
Ġwaited
ĠJeffrey
ĠUntil
Ġbone
ĠBobby
Ġpronounced
Ġpharmaceutical
ĠGallery
ĠMatch
Ġeconomists
ĠMarketing
face
ĠPetroleum
ories
ĠMets
ĠCore
billion
Ġexamination
ĠPorter
2016
Ġgolden
Ġsem
ĠDuterte
ĠJefferson
ĠTehran
ĠLeicester
ĠDA
Ġadapt
ĠDame
ĠRic
Ġunchanged
ect
Ġsections
kg
igned
Ġfilings
Ġreact
Ġurgent
Ġvessels
Ġspark
Ġbutter
ĠCons
Ġstating
Ġcorporations
ĠHus
Ġdamaging
raw
Ġequality
Two
ĠMills
iu
Ġobligation
ĠBrook
arian
Re
Ġphotographs
Ġepic
ĠStudent
ĠTherefore
Ġgod
ĠFILE
iqu
Ġdescribing
Ġproceed
Ġcas
ĠKat
ĠBra
Ġadequate
Ġpassage
Ġthanked
USA
ĠNeither
ĠLegislature
Ġfinances
Ġinst
ĵ
ĠAngels
Ġvet
ĠDead
Ex
Ġkicks
force
Ġsoy
ĠWindsor
Ġenhanced
Ġ1993
ĠCzech
Ġgradually
ĠMagic
Ġshadow
Ġneighborhoods
ĠRivers
Ġrapper
ĠGirl
ĠRot
Ġcrackdown
fish
Ġpreventing
Ġproduces
ĠMi
Ġnotified
Ġunderground
WE
Ġadmits
Ġboxing
Ġrefer
Ġcommitments
ĠWoman
Ġdenies
col
ĠSide
Ġambulance
ĠRodgers
Ġaftermath
Ġdeck
irmed
Ġerrors
ĠConvention
Ġcurb
ĠShop
ĠThai
Ġma
Ġrespected
ĠMVP
Ġborrowing
Ġcruise
ĠSure
Ġsentencing
ĠObamacare
ĠIr
ĠSale
ĠPete
Ġopenly
Ġstartup
rock
Ġcargo
Ġtelecom
ĠDownload
Ġextending
ĠCurrent
Ġcompetitions
ĠKids
Ġshy
ĠKerry
ĠNever
ĠDevils
Ġprim
Con
Ġcurve
Ġassumed
Ġadjust
Ġimmune
UE
ĠUr
Ġconventional
Ġgrandchildren
ĠBol
Ad
ĠMaduro
fi
ĠUAE
ĠOrgan
Ġindicating
iem
ĠAgainst
ĠAmbassador
ĠSeoul
Ġcriminals
how
put
Ġreminded
Ġparked
lich
Ġcontinent
Ġmatched
ĠNicole
Ġgenetic
Ġhumanity
ĠTem
Ġindicator
Ġvessel
Ġdefendant
ĠGriffin
jan
Ġvend
boro
Ġbrokerage
ĠFall
Ġmere
VILLE
Ġlasted
ĠMind
Ġpatch
ĠInsider
ĠComm
Ġtechnique
ĠIM
ĠCavaliers
Ġshame
Ġmil
oot
irt
Ġcop
ĠLeon
Ġfrozen
Ġslip
pton
Ġpanels
Ġpitching
Ġleather
ĠLogan
ĠNearly
urch
Ġinstructions
ĠRow
ĠKurdish
this
Ġlegendary
su
Ġstabbed
sters
Ġteenage
def
Ġoversight
Ġvolatile
Ġtransmission
ĠSgt
ĠIndigenous
ĠOxford
ĠCasey
Ġcor
Ġsalaries
Ġsponsor
Ġprescription
mat
ĠLeeds
ĠPakistani
Ġevil
Ġtables
ĠAbdul
Ġexpectation
Ġlegislature
ĠLin
¹
Ġcontractor
Ġshifting
Ġgenerous
ĠEddie
Ġpuck
utt
Ġdubbed
Ġnowhere
Ġbetting
Ġdisclose
Ĥ
ĠFashion
ĠHarper
handed
isha
ĠReds
Ġachievements
ume
Ġshootings
Ġadvisers
ĠEaster
Ġinternationally
ĠWi
ĠGandhi
ĠChristians
Ġrecruiting
Ġexperiment
Ġsol
Ġdifficulties
Ġinfluential
Ġhybrid
Ġformation
ĠBoulevard
Ġflags
Ġformula
front
Ġinclusion
ĠNone
ICE
Ġfilming
ĠLou
ĠReynolds
Ġpump
Ġexceptional
ANG
ĠCorporate
SAN
ĠHealthcare
ĠUkrainian
aron
Ġpants
Ġdrops
ete
ĠStudies
Ġwounds
END
Ġshower
Ġreviewing
ĠGreater
ĠÂ»
itors
alled
Ġsqu
ĠRonald
ĠInv
Ġtougher
Ġbalanced
Ġlined
Ġprinciple
Ġ1950
Ġleak
Be
Ġcircuit
Ġunfortunate
ĠGran
ĠFish
Ġfriendship
asp
OO
Ġobligations
Ġcoup
OK
Ġbreakdown
Ġhook
Ġresearcher
inated
ĠMarie
ĠGab
ĠWA
quez
General
ĠSwift
Ġgust
ĠCarol
ĠCentury
ĠOPEC
ĠRd
ĠCop
Ġsubjects
ĠComments
ases
Ġrelation
ĠEnvironment
ı
Ġgasoline
ĠLog
Ġicon
Ġprofitable
ĠRetail
ANC
Ġappealing
Ġvillages
Ġpizza
Ġmall
Ġtower
ĠLinda
Ġaccomplished
Ġpod
Ġleaked
ĠWed
Ġmer
Ġopposing
!'
Ġstomach
Ġrevealing
Ġho
DF
ĠSterling
Ġsolely
Ġpres
ĠCy
ĠLatest
ĠPitt
ĠThink
Ġcapability
aled
Ġexecuted
alling
ĠSilva
Ġrestricted
Ġdeclaration
Ġkilometres
rol
Ġidentifying
Ġdonors
vent
Ġcostly
ense
ĠSeeking
OURCE
iving
Ġplacing
tech
Ġbottles
writer
ĠSeahawks
oming
ĠArthur
ously
bin
ĠVa
Ġbias
Ġliability
ift
rak
aves
Ġcautious
ĠPrize
iley
ĠSharma
global
Ġwars
sm
ĠRemember
wind
ĠRichardson
ĠSum
ĠVincent
ĠRice
inf
Ġconsultation
range
Ġbacteria
Ġarchitecture
Ġpole
ĠMach
Ġcattle
Ġabused
being
ĠHERE
Ġfame
Ġhearings
ĠBrit
Ġjoins
ĠMcGregor
Ġoppose
Ġcheer
itting
imes
Ġusage
Ġstint
Ġoutlet
Ġshoppers
ĠBaptist
Ġinappropriate
ĠALSO
Ġstealing
Ġpledge
ĠRan
Ġphotographer
Ġprevented
Ġ01
ĠEngineering
ĠProducts
Ġuniverse
ĠMcCarthy
¿
graded
Ġinspection
Ġind
Fi
aren
Ġprotections
Ġsorts
ĠWorks
Ġbillionaire
ĠGay
ĠiPad
IX
Ġdefendants
band
Ġfarms
Ġhom
gal
iant
Ġnortheast
ĠJoint
Ġcanceled
Ġtoys
Ġrein
ĠTumblr
pees
ĠAut
Police
Ġaide
Ġachieving
Ġmund
ĠCommercial
first
Ġanticipate
iac
Ġprobation
hem
Ġports
ĠKer
Ġsupplier
ĠFather
ĠAnti
ashed
ĠTable
bledon
Ġunf
ĠRash
ĠLeBron
Car
bu
ĠDerek
Ġaccounted
ĠPri
nings
Ġreceives
lev
Ġbilateral
ĠList
ĠLG
ĠJazz
Ġrestored
Ġbattles
ials
Ġoccupied
Ġrepairs
Ġradar
ĠMLB
ĠNC
Ġflexible
ĠCommand
Ġcoat
ĠVir
ĠColts
ĠBC
Ġtwin
Ġprisoners
Ġslowed
hop
ĠInn
Ġconflicts
Ġmeasured
Ġautonomous
ĠBow
Ġdisc
inson
ĠSche
aire
ĠSU
ĠPeterson
Ġdrafted
ĠPelosi
ĠSoon
Ġmechanism
Ġaccountability
ĠNortheast
Ġfo
Ġanalytics
ĠEverything
Ġperceived
bers
Ġcelebrations
Ġinstruments
Ġstrip
ĠJuventus
Ġunfortunately
ĠGA
Ġwrestling
Ġstatue
vis
five
Ġmarine
ĠSamuel
Ġresponsibilities
hill
Ġrecruit
Ġreferee
ĠRail
ĠEagle
ĠCongressional
Ġbreathing
Ġbass
hit
Ġspreading
Ġevacuated
Ġintellectual
Ġsovereign
ocked
Ġslammed
Ġformerly
Ġarch
Ġdifficulty
ĠAFC
ĠFresh
Ġinvite
oner
ĠMich
Ġpitches
stock
Ġinitiated
ĠKu
ĠFlorence
yd
ĠFast
Ġmusician
ĠChile
anga
Ġdairy
Ġcontractors
ador
ĠPlanning
Ġultra
Ġprayer
Ġsuggestions
ĠEk
Ġrandom
ĠSullivan
Ġsensor
Ġhomicide
ĠIncome
Ġsettings
Ġacknowledge
ĠStay
Ġterminal
Ġ1991
West
hard
arc
Ġcombine
Ġprivately
Ġbarrier
Ġmedian
Ġwhereas
ĠTitans
Ġincentives
Ġhistorically
Ġindictment
Ġhiding
ĠPDT
Ġrebuild
hol
Ġpour
Ġairports
ĠEdinburgh
Ġappoint
ĠJul
Ġconfusion
Ġdam
ork
Ġcalculated
Ġhood
ĠTemple
ĠYorkshire
EP
ented
Ġapology
awi
Ġfacilitate
ĠSheffield
Ġrides
Ġcompelling
ĠGonzalez
roll
ONG
UP
ĠAj
pen
ĠVar
ĠIPO
ĠAnimal
Ġshifted
Ġ140
Ġtobacco
El
ild
Ġuncertain
Un
Ġcaps
Ġrecreational
ĠTu
Ġenc
More
iko
ĠEverton
ĠWalk
Ġmurdered
Ġpur
Ġdivisions
ivo
Ġfarming
Ġcourage
ped
Ġcrying
Ġattributed
Ã©e
Ġimplementing
ĠWang
Ġspeeds
alk
aming
eries
Ġavoided
ĠMessi
Ġconsiderable
rt
Ġinauguration
ĠPH
Ġsoldier
Ġore
ollywood
otive
ĠAuburn
ĠSav
ĠPut
Ġemphasis
Ġaf
owed
Ġdiagnosis
Ġcart
Ġassisted
ĠOrder
ĠEstate
Ġintends
ĠCommon
Ġadventure
Ġbeliefs
Ġlasting
cel
Ġdeployment
tra
ĠStories
Ġquote
Ġfeared
Ġconvenience
Ġoptimism
Ġscientist
ĠEnterprise
ĠRex
ĠFel
Ġposes
Ġroot
Ġevacuation
Ġpresidents
ĠRather
Ġgrave
ĠHeights
Ġjumping
driven
Ġaluminum
Ġholders
Ġboot
iber
Ġprecious
uation
FP
uses
Ġcommentary
Ġadvances
ĠNissan
Ġbronze
Ġinspire
Ġstarters
ĠEvan
rah
body
Ġcrops
Ġseeds
Ġharsh
ĠHomeland
Ġenabled
ological
Ġworkshop
Ġchains
amps
Ġamongst
ĠBear
Ġcertified
ĠJulie
Ġmountains
VA
Ġfed
Ġbuyer
ahl
ĠBos
ĠCrystal
Ġquest
ĠStein
Ġacceptable
Ġunbeaten
iring
ural
Ġuncomfortable
Ġpartial
Ġsacrifice
ĠGrande
Ġarrangement
Ġpackaging
screen
Ġmirror
Ġsweep
Ġconnecting
Ġpanic
ĠJacksonville
ĠKremlin
Ġorigin
Brien
Ġnorthwest
Ġcarriers
ĠRiley
Ġaud
Ġappreciation
Ġeliminated
ĠAnalyst
CR
Ġfirearm
Ġaccommodate
Ġstructural
Ġappealed
Ġcharter
ressing
Ġalike
white
Ġslowdown
Ġweigh
ĠPalmer
ound
ĠConn
Ġbranches
Ġace
Ġinsists
yo
ĠLynn
ĠCC
ĠWithin
Ġcoll
Ġsustain
Ġemerge
ĠBattle
VER
Ġaviation
Ġenables
ĠProduction
ĠGrove
Ġnationally
ĠBaldwin
rent
Ġfirearms
irm
Ġconsiders
ĠCosby
ĠMcK
ĠEnt
Ġincumbent
iance
Ġgiants
Ġkan
Ġminimal
ivity
ĠSay
ĠNass
Ġlovely
ĠFurthermore
Ġdisplaced
Ġcontacts
NY
Ġtechnological
ancy
Ġant
ope
ĠFY
Ġfavorable
ĠVirgin
Ġcasual
ĠLat
Ġpopulations
Ġromance
Ġforgotten
Ġfleeing
Ġspecialty
Ġdrill
Ġapplying
Ġcocaine
rea
Ġheroin
Ġsweeping
ĠMaj
Ġtroubled
Ġcolleague
Ġedged
omes
ĠHappy
Â´
Ġmilitant
boy
aver
Yes
llo
Ġsupporter
ĠSubscribe
ĠBird
ĠGibson
Ġhill
Ġnewspapers
ĠPHOTO
Ġouting
Ġdefine
Ġann
Ġrobot
Ġregret
ĠCould
raz
Ġceiling
Ġorganizers
ĠTw
Ġcriticised
ĠJoh
ĠJe
ĠBulls
Ġteeth
ĠRanch
ĠAndrea
Ġconservatives
Ġmag
vey
Ġpredecessor
ĠJPMorgan
Ġdraws
umber
Ġvaccine
ĠDas
Ġdisappeared
ĠIron
Ġlitigation
vert
Ġbelong
ĠRet
owers
rain
controlled
ĠKil
Ġrehab
ĠAustria
Ġprivilege
Ġbounce
Ġbout
ĠIslamist
Ġtaxi
ody
.'"
Ġdos
shire
Ġaccidents
Ġdemonstration
His
ĠBO
ĠICE
van
File
ĠManning
ounded
Ġdirections
lled
Ġoffences
Ġlaptop
ĠUniversal
Ġmilestone
ĠNarendra
Ġnotion
Ġuns
ĠLower
Ġmidfield
Ġoutper
trans
ĠJa
three
Adds
Ġpressures
Ġprohibited
Ġutilities
Ġbes
ĠReporter
Ġcommodities
leton
Ġslower
EE
auer
Ġtablet
sl
iously
Ġaiming
eland
ĠNEXT
tered
IVE
onic
May
ĠMilitary
Mark
Ġlender
mate
Ġaboard
they
Ġrespondents
Ġconversion
Ġsecuring
Ġentity
ĠHarbor
ĠCu
Ġcats
ĠACC
ĠIbrahim
GL
Ġinvitation
Ġcond
ĠRecords
ĠAdrian
Ġbrave
Ġmineral
Ġsooner
Ġsatisfied
Ġpets
Ġnotably
Ä±
Ġmarking
ĠRO
ĠHaw
ĠVis
Ġmarketplace
ĠNat
ĠForward
ĠLeft
Ġaggravated
ĠClose
acey
Ġlandmark
Ġdisruption
ĠChallenge
ĠDays
ĠCoun
ahan
Ġaides
South
ĠDylan
ĠRavens
ĠNature
lli
Ġdiplomats
350
ĠDrake
tag
Ġlicensed
ĠDenmark
Ġcancel
Ġinstant
DI
Ġpunch
ĠJenkins
Ġstrengthening
des
-$
Ġallegation
Ġsizes
iza
Ġmentally
ĠResidents
acked
Ġsensors
,'"
illion
ĠChampion
Ġexcessive
Ġhum
ĠComp
rend
ĠLakes
Ġburst
Ġtrainer
Ġclearing
ĠSilicon
Ġ350
DE
ĠGates
ĠHorn
ests
ĠCourtesy
Ġbipartisan
Ġhabits
ĠAlexa
walk
Ġsnapped
ĠEight
itis
zel
Ġcustoms
Ġsouthwest
Ġvary
Because
Ġpayout
Ġaccelerate
ĠBarr
tu
Ġfined
cost
ĠTheater
ĠCorbyn
Ġstem
Ġundermine
.;
Ġstays
Ġbreakthrough
Ġturnover
hot
Ġtriumph
Ġpainted
ĠWinnipeg
ĠKas
ĠStuart
irk
Am
Ġtrusted
aze
ĠLate
Ġaccessories
Ġmemorable
ĠFool
Ġrotation
ĠBulldogs
ĠChen
Ġpoised
ĠMonte
ĠClarke
leading
Ġvenues
Ġbeneficial
ĠLiam
ĠBrothers
ĠNeed
Ġconc
olly
ĠJulian
ogue
Ġfounding
Ġsidelines
Ġdeclare
ĠMember
Ġexamine
abs
Ġboundaries
ĠBrisbane
Ġlaunches
lor
ĠGa
Ġthr
expected
wal
ĠBarnes
Ġclashes
content
ĠClemson
iger
Mar
Ġaccord
Ġsoutheast
ģ
ĠStarbucks
osing
Ġseasonal
icking
Ġloyalty
Ġtent
ĠDy
Ġevident
Ġlobby
Ġtours
Ġbombing
uations
Ġrises
Ġdemonstrations
ĠWATCH
pin
Ġdeb
ĠDraft
rog
Ġseal
ĠPerformance
ĠLGBT
Ġsed
Ġgig
nan
Ġrainfall
Ġfabric
Ġmanages
Ġlifting
ĠMagazine
ĠCriminal
Ġhikes
Ġcatching
Ġ1989
OG
Ġdisappointment
Ġir
ĠEV
stown
pass
120
Ġmedals
ĠSimmons
Ġinaugural
ĠCorn
Ġmotorcycle
lets
ĠSkype
Ã©t
Ġscary
opp
thirds
ĠMohamed
Ġteenagers
ANK
Ġserver
Ġouts
Ġdishes
four
dr
ĠOt
ĠSandy
ĠShane
orters
SH
Ġtouching
ĠNike
ĠHBO
driving
Ġplug
ĠBaseball
eling
hn
ulate
eed
ĠChristine
ĠGlobe
Ġethics
ĠTrevor
iya
Ġ360
Ġawaiting
Ġcounterpart
Ġsubsidies
pointers
Ġspy
ILL
Ġtakeover
ĠBeyond
Ġsurprisingly
TION
ĠSong
Ġni
Ġcommonly
Ġjack
Ġsubstitute
ews
Ġrecalls
ĠCommons
Ġsin
del
ĠMod
Ġpressing
ĠTelevision
ĠInside
ª
Ġbacklash
Ġcredible
ĠJenner
ĠPu
ĠStevens
ĠWE
Last
Ġinsurers
ĠJoin
bled
digit
Ġflooded
ĠShore
ĠTrophy
zing
ĠImmigration
Ġsuperior
IAN
Ġcasino
Ġenabling
Ġmeantime
Ġperformers
Ġproportion
Ġlawmaker
ĠConf
Ġconvert
Ġfarmer
Ġbu
ĠGE
ĠRepresentative
ĠBannon
ĠHelp
PT
formed
ĠSuperintendent
Ġfrustrating
ĠRegister
ĠPolitical
Ġboots
ĠRu
ĠSha
Ġinstrument
tor
ĠBelt
ĠWalsh
Ġrecipe
ilt
ĠClean
iors
Ġtwenty
iler
nder
Ġwinger
Ġwheat
ĠAviation
Ġcorrupt
Ġconnectivity
ĠVen
order
esc
break
Ġmetals
Ġtraditionally
Ġbell
Ġviolating
rough
Ġintroducing
Ġguided
ĠMol
Ġdesert
ĠBree
Le
ĠZone
ĠGlass
ĠEUR
ĠYahoo
Ġlaps
Ġdiffer
ĠHold
Ġtimely
Ġsuccessor
Ġcomic
Ġbears
Ġlicence
Ġreject
Ġsophisticated
Too
Ġobjectives
ĠId
urers
Ġraid
COM
Ġelect
ĠHampshire
Ġlens
Ġdesigners
Ġpresently
ĠRCMP
ĠEgyptian
ĠWalter
ĠWallace
Ġ2025
utics
ried
Ġrefuse
Ġsiblings
ĠNothing
Ġdressing
Ġnerve
AST
Ġuncertainties
Ġtale
ĠTalk
Ġissuing
shot
ĠTak
Ġacid
ĠNintendo
Ġwash
pd
ĠClaire
ĠScot
Ġsuits
ĠBayern
gest
Ġapplicable
Ġinteraction
ĠEnforcement
ĠRohingya
Ġjan
Ġunited
ĠCoalition
Ġlegislators
Ġdetectives
ĠSing
ĠBetween
ĠPoly
pool
mal
Ġreply
Ġschemes
ĠHolmes
ĠSenators
ĠVerizon
Ġwelcoming
ĠCricket
ĠMarco
ĠYears
ĠLiving
Ġcounterparts
ĠParadise
ĠTrad
#
iw
ĠSoccer
umbled
Ġdeceased
heim
Ġevaluation
Ġwrap
Ġmild
aji
ĠUCLA
ĠNative
president
ĠXbox
Ġenterprises
ĠSlam
oga
Rock
piece
ĠColeman
Ġcomparable
uba
Ġprovinces
ĠFormula
ipt
Ã´
Ġtick
ĠIMF
anch
atta
rew
However
LS
etta
ĠCustoms
SU
Ġpublishing
Ġinch
Ġkills
¤
ĠSus
ĠBeth
Ġsteam
jpg
pointer
Ġturnovers
Ġpowder
ĠUSB
ĠWildlife
ĠDirect
atively
ĠFerrari
Ġpleasure
ĠMatthews
Ġski
ography
ĠVermont
ĠMargaret
ĠMunich
Ġlayer
ĠProperty
Ġeconomics
ĠCrew
UK
Ġunnecessary
ĠGlasgow
Ġsealed
Ġclarity
Ġsurplus
ĠCanyon
ĠApart
Ġacceptance
ĠEllis
uster
rid
ĠHawks
Ġstatewide
Ġthreaten
ĠJail
Ġinclusive
Ġmud
Ġpat
Ġbitter
Ġalternatives
Ġaffiliate
Ġevaluate
ĠBaby
Ġperception
tim
Ġrefusing
Ġgrey
Ġarguably
Ġfirmly
ĠDark
Ġexcuse
ĠRaymond
Ġballots
inton
Ġ125
ĠCatherine
Ġsacks
ĠDeb
Ġworkout
web
Ġbatteries
breaking
ML
Ġunacceptable
ĠValentine
ĠYOU
ĠRT
Ġjurisdiction
Ġexamined
strom
ĠPocket
Ġcement
Ġuniversal
ĠOz
Ġkit
Ġchurches
Ġsuburban
ĠKushner
ĠDavidson
Sports
email
Ġrealistic
Ġintend
ĠGrey
,''
Ġscholarship
Ġphilosophy
Ġwheels
Ġmotivation
eway
match
ĠDate
John
Ġcontrolling
750
aven
Ġfilmed
Ġ160
ĠBrock
ĠDetails
Ġlogistics
Ġassumptions
ĠStep
Ġfails
ĠNotre
Ġjuice
Ġcounting
Ġphotograph
Ġfortunate
Ġestablishing
ĠNJ
ĠWorkers
ĠQuinn
ĠHeather
Ġtimeline
Ġimported
ĠNASCAR
Ġexercises
Ġsearched
ĠRalph
alf
Ġgene
Ġdependent
Ã©n
iate
ĠBristol
Ġhung
Ġtropical
Ġintensity
ĠIdaho
ĠMull
Ġsuite
Ġblockchain
cz
ovich
Ġworn
ĠLE
AV
emi
Ġidentification
Ġtunnel
ĠARE
ĠArm
Ġoutrage
Ġtwist
uka
ĠGra
Ġjets
ĠThus
Ġcompound
Ġfinancially
2019
asse
Ġspare
ĠNoah
ĠMade
ĠMom
Ġphenomenon
Ġnurses
Ġoutlined
Ġpolit
ĠCarm
Ġleagues
Ġmath
Ġmodified
Ġwillingness
ĠAmanda
Ġgrandfather
Of
DR
Ġdip
ĠRAM
ĠChristie
Ġargues
ĠEX
ĠNine
ĠScroll
ĠTHIS
Pro
Ġkeys
Ġprocessor
Ġscam
ĠTraining
Ġhoney
Ĵ
Ġfacebook
ĠLegal
Ġaging
Ġspiritual
ĠHost
Ġlung
ĠUSC
Ġdirt
Ġfe
after
ĠDiana
Ġounce
date
ĠFinals
Ķ
Ġthorough
Ġviable
Ġanytime
Ġfost
orter
ware
ĠHolland
ĠMand
ĠSend
2013
ĠVolkswagen
Ġsuitable
ifies
Ġcomedian
Ġneighbours
ĠKnow
Ġcurious
ĠTwenty
ĠPrevention
ĠStephanie
Ġpilots
Ġstored
Ġdire
Ġfits
ision
ĠShell
Ġshifts
Ġpepper
Ġattendees
ĠName
hers
rip
Ġwatchdog
andy
Ġbio
Ġpublisher
powered
ĠCM
rian
ĠRand
wise
ĠJesse
Ġladies
ĠMetropolitan
ĠMicro
Ġkicking
Ġmeg
Ġclouds
Ġtrim
wear
ĠML
Ġconsists
Ġrig
Ġhonestly
GS
ĠNicholas
Ġcope
Ġpublish
working
bur
ĠNar
olds
aja
ĠSad
Ġclicking
Ġbids
ĠZuckerberg
Ġ900
Ġexam
ivers
Ġpray
Ġreader
ĠSeth
inem
Ġconfront
stra
AW
ĠGian
Ġaccordance
Ġinteract
ĠSharks
Ġfireworks
gment
illy
Ġconst
ARY
Ġprizes
Ġshoulders
Ġaccessed
Ġecosystem
Ġlicensing
La
Ġdedication
ĠdÃ©
Ġyouths
lem
Ġtoy
ĠProm
ounding
rod
Ġ1000
ishes
Over
Ġgaps
Ġmissions
Ġrailway
Day
orp
ĠSchumer
Ġeclipse
Ġshell
ĠBY
Many
ĠRecord
Ġdrunk
ayan
Ġsuggestion
Ġdefenders
ĠNewton
Ġdisputes
Ġevolution
Ġcredibility
ĠTenn
Ġplain
size
cont
Ġlone
Ġfingers
BUR
ĠInvestigation
ĠQualcomm
var
Ġcountless
ĠRebecca
½
abi
Ġreflecting
ĠTurn
Ġinteractive
Ġincentive
second
offs
ĠBerkeley
ĠTexans
Ġheated
Ġscorer
ĠSharif
Ġmigrant
west
ĠHoliday
Ġwrist
Ġchairs
Ġrecommends
ĠWildcats
ĠPed
ĠQuarter
ĠIV
ĠArch
Ġstandings
Ġbombs
Ġcapped
Can
Ġcaring
ĠLah
lim
Ġdragged
ĠBeat
DB
Ġaired
Ġjeans
action
Ġgenerating
ĠGir
risk
lon
stage
âĤ¬
earing
ĠTogether
Ġreun
ĠCorey
ĠBak
Ġprestigious
Ġapplicants
here
ĠMattis
Ġridiculous
ĠLess
Ġrains
Ġpresenting
anti
Ġdisabilities
Ġapartments
storm
ĠHem
Ġhabit
ĠRuth
ĠNPR
nut
Ġappreciated
Ġseparation
uda
Ġminus
ĠPhotos
Ġblew
ĠVoice
Ġrallies
Ġfond
ĠTaking
yt
FE
ĠTory
ressed
ĠLy
Ġrocks
ĠRah
Ġelementary
nis
ĠPresidential
Ġnutrition
Ġbaseman
Ġsuperstar
ĠWa
lar
Ġstaged
ĠLearn
Ġbroadcaster
Ġboasts
Ġdoubts
rum
Ġbare
cap
Ġclimbing
ĠSelect
ĠCant
ĠNord
ĠBeck
ĠKad
ello
Ġenforce
ĠZe
ked
elly
ĠLED
ĠOperations
ĠLuk
Ġcertificate
Ġdeter
Ġspill
Ġgrain
league
Up
ĠKid
using
ĠJays
Ġoccasionally
ĠMI
yes
Ġdetect
Ġpropaganda
Ġneighboring
sub
avan
ĠAstros
oti
threatening
Ġshorter
INGS
Ġfeeding
Ġelevated
ĠWenger
Ġundergo
Ġpsychological
Ġautom
NP
anks
ĠNokia
Ġdrones
Ġrecognised
Ġheroes
agen
Ġparole
ĠBah
Ġhomeowners
ĠSweet
Ġinstances
ĠParish
ĠSL
Ġunw
Ġdelicious
¯
ĠInvestments
ĠPhilippine
inos
Ġmes
Ġbite
Ġcornerback
ĠHat
Ġdeserved
ologists
[
Ġwrongdoing
ĠTrent
ĠVe
ĠDeal
Mr
Ġovers
Ġhonors
ĠITV
Ġpayroll
Ġconfused
Ġelaborate
ange
World
ĠResort
ilia
ĠKr
Ġconclude
First
ĠDR
Ġpeer
Ġrunway
ĠPotter
cons
bad
si
ĠClimate
ĠHoll
Ġweighing
Ġepidemic
ĠBible
Ġhon
Ġrenew
Ġgambling
ĠNationals
itable
ĠOutlook
Ġreactions
ĠCos
ĠDana
India
ĠAirbus
power
watch
Ġstyles
Ġordinance
Ġcam
Ġinvent
ĠDurant
Ġexchanged
Ġyoga
ĠMichel
ĠWyoming
ĠPhase
ĠHannah
Ġtem
Ġfare
omer
Ġtrails
Ġquietly
ĠFourth
Ġwise
Ġappetite
Ġpedestrian
Ġfierce
hin
ako
Ġvacant
Ġdynamics
Ġbust
ĠGT
century
Ġpermitted
Ġfog
Ġrecruitment
ĠDue
Ġbro
Ġsil
ĠOpp
Ġphrase
ĠChip
ĠBase
Ġjazz
Ġenemies
Ġremainder
bles
Ġ105
ĠGur
Ġretiring
ĠCour
ĠSi
Ġinevitable
ĠAdvisory
ĠCampaign
ĠPeninsula
base
Ġjustify
inen
North
Ġfreezing
Ġphotography
Ġappointments
ĠTree
Os
Ġdivide
ĠMMA
Ġdeclines
ĠAbbott
ACH
ĠJah
Ġspr
Ġskilled
ĠTry
ANT
ael
ĠMcN
Ġtariff
generation
ĠMans
Or
Ġraped
Ġdisability
Ġnominations
Ġhappiness
ĠLSU
ĠInterstate
ĠDance
ĠMaking
Ġbailout
oro
ĠObviously
Ġinbox
football
hy
ĠCase
Ġentertaining
Ġhardest
ĠOpposition
Ġflip
ĠPirates
anu
ĠKlopp
Ġballistic
Ġprinted
ĠNFC
UST
Ġglasses
Ġrum
ĠDuncan
hal
Ġpreview
BER
dec
Ġsustainability
Ġaff
Ġhungry
service
avi
Ġsometime
Ġmod
ĠLib
oko
Ġfundraiser
Ġcrowded
mates
Ġcreativity
ĠHell
Ġtreaty
ĠSoftware
ĠRandy
ĠPolish
sa
ardi
Ġcab
ĠCamera
Ġlicenses
Ġ1988
Ġcontinuous
Ġpaired
Ġtally
Ġgrip
cho
Ġsurged
Ġpodium
Ġcontrary
SL
ĠResearchers
cing
Ġmi
Ġdisputed
Ġgrades
Ġseverely
ĠMcL
ondo
Ġshelters
Ġdomain
ĠSwitch
Ġtestify
case
omet
atch
ĠAff
Ġcasting
berger
Ġintimate
erc
plan
ĠPast
ĠUt
Ġapologized
ĠDet
alle
Ġwhilst
Ġpel
Ġexecute
Ġharmful
ĠRB
onda
ĠFul
II
Those
Ġcryptocurrency
Ġrealise
ĠAthens
ĠApplication
ORD
Ġmidst
ĠSem
Ġmessaging
Ġcousin
ĠMarsh
ĠAlmost
uto
wire
ĠManaging
Ġsends
ĠDerby
Ġpad
Ġdevoted
ĠWorking
ĠWestminster
Ġdirty
ements
ĠLew
door
Ġadvisor
ival
Ġsubscribe
Ġcredited
Ġpressed
Ġbrick
Ġrehabilitation
Ġ"[
erry
Ġtransformed
arp
Ġreceivers
ĠFan
ĠKris
ĠCharlottesville
Ġste
Ġconstructed
Ġbroadly
ĠBetter
ĠJanet
Ġenthusiasm
ĠIrving
ĠConst
Everyone
agn
ĠCrawford
Ġregards
ĠBurns
Ġjokes
erg
ARD
apped
Ġtravelled
ĠPoor
ĠHolly
Ġcontainer
Ġinfected
Ġlean
ĠWould
Ġmagnitude
ĠDou
minded
Ġpastor
Ġwherever
ulation
Ġ1986
ĠMegan
Ġgraphic
Ġtalents
Ġkn
ĠEC
ĠMcM
ĠKon
eni
ĠEsc
inas
ĠNom
Ġchasing
arl
ĠHungary
Ġmainland
ĠDist
utes
Ġrubber
iat
ĠMorrison
ushing
iny
Ġcopies
ĠFat
agged
Ġfloating
ĠCurtis
Ġfatally
ĠManuel
Ġgraduates
nar
ĠKenny
Ġretreat
Ġretro
ĠPierre
listed
ĠDale
ding
Ġintentions
Ġsentences
ĠSere
Ġinvasion
Ġpremiums
ĠGardner
Ġshipments
Ġcol
bell
ilo
Ġworthy
Ġinterceptions
Ġcomplain
icle
ĠTah
ĠMt
ĠSyracuse
Since
aches
ĠCand
Ġinteractions
ĠShawn
nc
Ġtheaters
ART
Th
Ġalter
aley
imo
Ġresponders
kan
ĠDarren
Ġdeliveries
PI
125
Ġlaughing
ĠPatterson
Ġinfections
Ġtur
130
Ġhackers
Ġwarn
Ġfreeze
Ġscreaming
ĠEcho
ĠDom
MAN
ĠJoy
Ġbeneath
ĠHalf
Ġpatent
Ġugly
Ġlip
Ġnominees
ĠGrade
Ġinfluenced
Ġabilities
Ġlimiting
Ġsmell
Ġesc
ĠBernard
cs
ĠMyers
oted
Black
Ġlim
Ġsworn
ĠBlair
anes
ĠEvent
Ġmature
Ġpositioned
Ġerupted
grand
ĠTell
Ġbackdrop
Ġyeah
ĠClear
Ġsignificance
Ġpatience
ĠWing
Ġhorrible
Ġdeploy
ipe
Ġbitcoin
Ġcommitting
Ġdismiss
ĠBlood
ĠMeyer
selling
Ġregarded
Ġlottery
ĠLuther
Ġpipe
Ġcro
ĠANC
ĠSolar
Ġsimilarly
Ġham
ĠHonor
tar
gin
ĠArmstrong
Ġbrowser
agon
via
Ġentries
Ġinfl
Ġgraduation
Ġalleges
ĠLoading
Ġsuperb
ially
Ġadministrator
uls
Ġartistic
ĠANGEL
ĠBang
Ġfossil
¨
Ġpoly
ĠGuardiola
ĠPerth
Ġeducate
Cl
Ġcommittees
Ġforthcoming
Ġadjustments
count
Ġincoming
brook
ĠMinneapolis
Ġgown
ĠCroatia
host
Ġcompetitor
Ġlyrics
Ġbelonging
ĠFrances
ĠHaley
ĠBruins
Ġmask
ĠPv
dollar
Ġbowling
Ġjewelry
ĠJulia
Ġbroadband
ĠBhar
ĠArmed
vy
government
kov
Ġpremises
Ġjersey
Ġapplies
ĠFreeman
Ġgrows
ĠEquity
Ġmaterially
Ġfigured
ience
Ġmajors
ĠYe
ĠHey
oned
aping
Ġtoilet
ĠConnor
Ġavoiding
pos
Once
ĠRockets
ĠSnapchat
Go
Ġsolidarity
ĠAffordable
Ġdial
ĠOmar
xt
ĠVatican
anta
ĠSuperior
Ġbeaches
ĠKi
Ã¥
KY
Ġgro
ĠEmpire
Ġoccurs
Ġjoked
Ġquotes
ĠSaskatchewan
pert
Ġmaintains
olt
Ġupgrades
ĠCho
ĠAlexis
ĠHundreds
ĠBud
Ġcenturies
ĠInvestor
ĠGomez
Ġconceded
Ġexpressing
ĠIBM
Ġadvancing
ĠDollar
jer
Ġexceed
author
rist
seat
ĠPrimary
ĠForbes
ĠAlzheimer
Ġdevastated
Ġawful
ĠStudio
Ġbullpen
Ġmobility
Ġanalyze
lie
AFP
iche
ĠRoyals
Ġcoupled
Ġdug
ĠRing
Ġenvironments
national
ĠCongo
Ġalleging
wn
ulating
Ġur
Ġreaches
ĠPine
Ġthreshold
Ġtournaments
Ġheating
ĠGard
ĠHamas
ĠÂ«
ĠHolding
Ġpossibilities
ĠHassan
ĠMohammad
Ġoffenders
Ġautomated
Ġrealised
ouse
building
ĠDub
ĠGeneva
Ġfacial
ĠRestaurant
ĠNg
Ġtot
Ġgrace
ĠCP
Ġposter
hart
ĠNi
Ġreaff
Ġprov
Ġ111
ĠAid
Ġscrap
izers
ogen
Ġtissue
Ġvibrant
Ġrider
CD
ĠKitchen
Ġgenre
¬
depth
kind
Ġendorsed
Ġsimultaneously
Ġintern
ĠDrag
Ġembraced
Ġcounted
uj
ĠOg
Ġphysician
ĠIR
IST
ĠKir
Ġhacking
ĠSources
astic
growing
ĠWake
Ġhint
Ġcompiled
Ġreign
Ġcinema
Ġboosting
Ġaccommodation
ĠEuropa
Ġsubsidiaries
Ġclosures
ĠBil
ĠBou
wh
ĠAw
FT
hole
ĠNova
ĠNSW
Ġrap
Ġencourages
GR
ds
ĠMuk
ĠSurvey
ĠReagan
oning
Ġneighbouring
ĠMcCl
acht
Ġfinishes
ĠEsp
pat
Ġdestinations
ĠWagner
Ġconfronted
square
Ġpie
brand
hl
Ġabsent
Ġsurf
Ġrifle
ĠSS
ĠDeath
wich
Ġbeds
ĠLock
ĠAgu
atives
jee
Ġoral
Ġbudgets
Ġinspiring
IONS
works
Ġspirits
Ġcabin
Ġsatisfaction
Ġvoluntary
ĠMunicipal
Ġdeportation
ĠWriter
ĠVI
VERTISEMENT
/.
ĠSouthampton
aces
ĠHelen
ĠHum
110
Ġgarbage
through
Ġkingdom
MT
augh
Ġbizarre
ĠStarting
Ġwooden
ĠProgress
iron
sten
ĠSergio
ĠHR
Ġturnout
ĠAmericas
ĠSara
Ġagrees
apper
Ġbra
Ġrecycling
oom
Ġflee
Ġdistinct
IAL
aha
Ġfever
ĠPartnership
ĠYu
ĠPixel
ĠBlock
ĠMelissa
igg
Ġdecides
ĠNorman
Ġmas
held
ĠPD
Ġsheer
ĠDim
ĠCass
Ġcolumnist
ĠBros
Ġturnaround
ĠValue
ĠBachelor
awn
Ġassignment
ested
ĠJudiciary
Ġdiamond
Ġmus
Ġindigenous
lines
Ġ1984
igroup
ict
ĠJaguars
Ġlun
Ġprofiles
Ġcomputing
ĠBelgian
ĠLloyd
ĠGoing
Ġdisp
Ġ1987
eder
ĠVin
Ġgovern
Ġblend
ĠSebastian
ĠMidwest
iga
Ġspl
Ġtopping
Ġnetworking
ĠEmer
Ġoxygen
ĠInterest
ĠMoy
Ġtrader
Ġbay
Ġsticking
ĠMovement
Ġbidding
tax
Ġacademy
ĠMO
ĠSpirit
Ġhealing
wen
ĠPrix
cal
ĠOperating
Ġinstantly
ĠTonight
Ġsacked
Ġautomation
umps
ĠNey
March
ĠBuck
Ġconcentration
Here
Ġtravelers
Ġprotective
ĠMoody
Ġentrepreneur
Ġfac
kowski
Ġpreparations
Ġdominate
Ġspray
Ġdisturbing
ĠFraser
ĠCody
ashi
ĠPel
Ġrisky
Ġawkward
ĠVA
ails
Ġangle
Ġundergoing
Ġalbums
Ġafterwards
ĠNaw
uge
enter
ĠSussex
ĠRecently
Ġlikelihood
large
Ġsnaps
ibr
ĠMalcolm
Ġcru
Ġaltogether
Ġsetup
Ġtorture
Ġfiber
Ġquarterbacks
ĠGetting
ipping
ĠNorwegian
ĠMiles
ĠArnold
ĠDisease
Ġtends
ife
ĠCaroline
Ġnavigate
Ġbrush
ĠAssociates
Ġbath
ĠCenters
ĠMC
Ġtaxpayer
comp
Ġaccomplish
ĠTraffic
ĠBru
Ġgreenhouse
ĠMalaysian
ĠPur
ased
ĠKnicks
aters
Ġalt
ICK
Ġcalculations
Ġmindset
unch
Ġgu
Ġsteadily
Ġfiction
ĠPap
forming
ĠActor
ĠBerry
imp
ĠUpper
Ġassessed
Ġlawn
ĠRoh
Ġclearance
funded
Ġpret
ĠHom
VS
ĠTourism
ĠRy
ĠGonz
ĠStudios
Ġanchor
Ġrecognise
Ġcooperate
enny
aza
ĠMeet
Ġeventual
SW
ĠCounsel
ĠSave
Ġlucrative
Ġslim
ĠGreens
Ġchemistry
ĠSheikh
Ġbridges
business
ĠSaf
ĠGy
Ġprotocol
Ġnephew
ĠBrands
ĠCulture
orship
Ġ(Â£
ĠDell
astics
Ġproving
ĠMann
aca
Ġindoor
ĠUganda
ĠRomney
ĠStage
Ġward
ĠAmber
haw
Ġtw
Ġbullying
ĠCAR
Ġassociates
ĠHopkins
Ġsuburb
Ġaggressively
Ġpostponed
Ġbas
Ġburglary
ĠFound
Ġfloors
Any
Ġjam
Ġvisibility
Ġbenefited
ĠAud
aying
iku
ĠPas
ĠGPS
ĠOwens
Ġreluctant
ĠOlivia
ols
Ġemotion
ĠHeavy
Ġhostile
Ġfavorites
Ġfeat
ĠCord
ĠGO
Ġindicted
idal
ĠIL
Ħ
acer
ICH
oda
Ġrecipients
Ġtribal
Ġresist
ĠCritics
Ġsang
ĠMath
ĠBrighton
ĠKw
Ġlimitations
Ġinterception
onde
ĠRobertson
Ġenjoys
site
Ġwings
ĠCeltic
Ġrelaxed
Share
Ġwarrants
oco
Ġcritically
GC
Ġcute
Ġlaying
itude
ĠMediterranean
Ġwatches
Ġdisagree
ĠReturn
ARC
people
Ġtwelve
Ġoverdose
ĠLot
ĠFROM
ĠPeters
Ġadministrators
Ġslam
jar
OH
ĠInitiative
Ġteamed
ĠMajority
June
ĠPlaza
lake
Ġglimpse
Ġrings
Ġos
Ġmentor
have
Ġlanguages
Ġuncle
agu
ĠWine
ĠCategory
ĠIng
Ġcontests
ĠRosen
ĠWhatever
Ġdenying
ean
Ġspec
Ġgrad
Ġtenants
show
ĠGregory
Ġcontention
Ġunanimously
ĠPin
fa
ĠPink
Ġswitched
acre
ĠTrading
VP
ĠMaple
Neill
Ġdiscounts
alls
Ġsounded
Ġrumours
ĠCre
hall
ĠTele
Ġthankful
Ġsurveyed
UB
Ġdignity
Ġnod
Ġmisleading
ĠTX
ĠBurke
Ġmounting
Ġskies
Ġbesides
ĠGarrett
tha
Ġintelligent
Ġtanks
apping
ĠRat
aint
Ġentertain
ĠAbdullah
Ġsink
ĠLan
ĠManufacturing
NFL
Ġthemes
ĠHaven
ĠDavies
ĠKerr
ĠLen
Ġcourtroom
Ġfailures
Ġlately
ĠElectronics
Ġgorgeous
Ġnotification
Ġ2030
aved
Ġdeer
economic
ĠStatistics
Ġconfrontation
Ġgovernors
ĠHaram
ĠLGBTQ
Ġprocessed
ĠDuchess
Ġdowns
Ġpork
Ġhumor
ocese
Ġneeding
Ġmidterm
ĠOval
Ġcorners
Ġtablets
eds
vere
Ġattacker
Paul
pee
ĠAlice
Ġrenowned
Ġ09
ocking
Ġcreditors
ĠPedro
ĠPhone
Ġsurveys
ĠWelsh
Ġcow
Ġbuilds
Ġ000
ĠAzerbaijan
ĠYad
Ġinfant
Ġmotorists
Ġpoorly
Ġmedications
Ġstupid
ĠCastro
user
antly
alty
ĠCond
issa
ĠIvan
Ġcostume
Ġ08
Ġhence
Ġdangers
Ġbullish
Life
Ġflavor
ĠCharleston
Ġbikes
Ġworkshops
Ġarranged
Ġcontender
Ġsequel
ĠPlant
Ġdonor
Ġfactories
rict
ellen
Ġrobots
ĠWor
ĠDirectors
ĠPeru
Ġqueen
ĠTimothy
ĠToo
Ġobservers
Ġears
Ġbel
link
uns
Ġhomers
Ġadjacent
Ġconfidential
Ġstunned
iden
illed
ESS
Ġconvenient
ĠLindsey
por
upp
Ġborrow
ĠAhmad
ORT
Ġrelate
ĠSelf
ĠVanguard
utter
ĠBranch
ĠBolton
bat
Ġoutright
fighters
ĠBed
Ġpes
inski
Ġgunshot
Ġprinting
ĠSent
vern
Ġharvest
Ġbubble
Ġrefund
Ġfuels
Ġdive
Ġdiplomat
Ġpile
ĠVery
rot
ĠSearch
ĠJoyce
ĠPruitt
ĠLevel
ĠBP
ĠLac
had
Ġexpenditure
ĠMadd
Ġpockets
ĠClippers
ĠDear
ĠGive
Ġhal
Ġvertical
Ġwholesale
what
ĠSpringfield
ayed
ĠSom
Ġsecrets
Ġcharts
iar
ibility
LAND
Ġbearing
Ġprom
Ġtab
Ġsheets
ĠGL
Ġendless
opening
ĠOwen
Ġunderneath
ĠErik
ĠDACA
Ġsteering
Ġfootprint
ĠRoma
ĠDucks
ĠEllen
ĠProfessional
ĠGardens
Ġgoalie
Ġshine
Ġturmoil
Ġhunger
ĠâĢĭ
active
hey
Ġblessed
ason
oping
ĠThousands
Ġdose
ĠLor
Ġevolved
Ġcharities
ĠPE
ĠRub
ws
Ġmist
ĠShen
Ġbiological
ĠTweet
Ġcollections
Ġsubstantially
inner
Ġbattled
ĠCong
Hold
wp
Ġwells
Ġsake
Ġunrest
ĠKurt
Ġripped
itation
Ġneighbourhood
Ġinv
Ġcad
ĠCuban
ĠWealth
Ġtuition
Ġdeclaring
sch
orne
Ġwondered
ĠChaff
Ġdealer
ĠNumber
Mobile
Ġscratch
Ġprepares
ĠSens
ĠIstanbul
ĠPanama
ĠCay
Ġallocation
itutional
Ġhar
ĠNazi
ĠSund
Ġwarehouse
Ġbackyard
ĠIll
Ġunlawful
ĠReform
Ġbasement
ĠHi
ĠPictures
Ġtransfers
ĠSell
Ġfluid
Ġambitions
wife
Ġintensive
Ġsteals
Ġfestive
ĠHayes
Ġrestoration
Ġbranded
Journal
Ġmacro
Ġconsole
ĠMelania
ĠRahul
Ġdisposal
Ġcult
Ġpetrol
Ġtires
Ġkidnapping
Ġ115
Ġswap
ĠSud
Ġblown
ĠHindu
ĠBeckham
ĠGul
Ġfixture
Ġwisdom
Ġmines
fort
Ġrivers
ĠCyber
Ġtouches
race
Ġrelax
Ġcrashes
Ġconstituency
Ġ1979
Ġbureau
Ġinterface
Ġdetected
ĠBio
Ġhighlighting
ames
Ġcorresponding
great
Ġgray
Ġadvantages
ĠME
ĠAbbas
Ġnaked
rington
.),
ĠFace
third
Ġtranscript
ples
Good
ĠArctic
Ġtolerance
reat
green
ĠMik
Ġoutreach
Ġrolls
Ġgen
Ġsupplied
Ġguarantees
aug
Ġsemif
ounds
running
Ġfitting
ĠRisk
iveness
family
Ġti
ĠIsaac
Ġdump
ĠPatricia
Ġpassport
ĠRhode
Who
log
Ġstat
Ġrat
ango
SB
ĠMaur
Ġsmiling
Ġstrikeouts
Ġpupils
Ġcomplications
ĠAdvanced
ĠMonetary
ĠTall
ĠALL
Ġcontributor
ĠAdvertising
Ġhorrific
Ġcompeted
ĠKenneth
Ġhailed
Ġbones
Ġbolster
ĠBoss
Ġhospitalized
ĠTelegraph
ĠIndependence
Ġdr
ĠHang
Ġdocumented
Ġsubtle
invest
Ġbounced
ĠMAN
Ġprofession
Ń
Ġexcellence
ĠInspector
ĠBL
Ġdisrupt
ĠWinston
ĠCommunist
ĠSharon
Ġmechanical
Ġtreats
Ġdesperately
ĠIndy
ĠGi
ĠComposite
ĠHeath
aser
ĠCardiff
ilit
Ġeased
Ġprospective
Ġcommissioned
Ġtire
Ġalign
Ġgesture
Ġweakened
URE
SN
Ġnationals
Ġrelies
ĠIRS
ĠCount
Ġmedicines
Ġcongress
Ġstranger
Qu
lessly
ĠQueens
ĠAlleg
uing
ĠWy
ĠMiguel
idi
Ġcivic
ĠPetro
endo
Obviously
Ġreflection
ĠStop
ĠFitzgerald
placed
shore
Ġcorrectly
ĠNE
amy
ĠCT
some
ĠMb
oi
ĠHogan
ĠInnovation
ĠVilla
ĠCAN
ĠCemetery
into
Ġquestionable
Ġcreator
rug
Ġsemifinals
mission
Ġcle
ĠWaters
ĠNixon
ĠBT
Ġassuming
ĠJer
ĠClay
pack
ĠCool
may
Ġdecor
Ġspike
ĠSomalia
ĠKarn
ĠDamascus
Shares
Ġsus
ĠMoss
Ġ1985
Ġsuperintendent
ĠResults
Ġspends
prom
Ġshipped
Ġlaundering
ĠLeslie
Ġmeteor
Ġabandon
Ġdeliberately
ĠSentinel
Ġfascinating
Ġenrollment
ĠExperts
ĠSimilarly
ĠCuomo
bor
Ġune
neutral
Ġhamstring
Ġnegotiated
zes
ĠLeo
ĠDoctor
Ġcurriculum
ĠFocus
Ġtravels
Ġbeverage
ĠIncluding
tz
type
ĠRange
Ġfloods
Ġcoached
Ġdominance
letico
ĠRafael
Ġpredictions
Ġprosperity
ĠCav
Ġclinics
ĠBanking
ĠComing
ears
ĠKaepernick
ĠBlvd
Ġretained
isions
Ġko
Ġensemble
Ġprecise
Ġcompact
MD
ĠJet
ached
ĠTru
ĠBass
ĠIcon
Ġexcluding
sur
Ġconstruct
Ġvoiced
pan
Ġinability
Ġexc
Ġmate
Ġtrailing
Ġsuccessive
Ġbets
Ġgauge
Ġminorities
ĠIND
ĠVel
ĠGP
oid
bon
Ġpred
Ġdash
Ġperformer
Ġoccasional
aken
mes
America
Ġliver
Sp
Big
Ġwildfires
ĠJackie
ĠLed
ĠFinland
Ġjurors
olic
urance
ĠEdge
open
Ġscenarios
Ġglory
entry
ĠCoffee
rep
ĠChand
ĠVas
ĠIslamabad
Ġbur
ĠFle
ĠEdition
Ġshoe
ï¸ı
**
tle
ĠEb
keeping
ĠBasketball
ĠVon
ĠCF
MENT
amm
ĠFernando
Ġcompares
ĠDouble
Ġconvictions
Ġatop
Ġcops
Ġremembers
Ġlacking
dom
itate
ĠBeauty
Ġdevelops
ĠGor
Ġfunctional
ĠCOUNTY
ĠUpon
Ġsprint
Ġinjection
Ġminors
ĠTamil
ĠGat
101
ety
Ġdrum
Ġtasked
Ġpact
Ġ170
MR
ĠRamos
Ġcandy
Sc
iced
Ġsupermarket
Ġworrying
Ġsellers
ĠTag
.:
Ġmixture
oting
Bl
ĠLl
ĠJal
ican
ĠBid
country
ĠStrategy
Ġadverse
Ġplunged
ĠMit
Ġstark
aton
Ġbooking
Tr
Ġcontainers
Ġvintage
ĠPit
Ġsurfaced
Ġindependently
Ġdetection
ĠBeyon
Ġcasualties
Ġstabbing
oved
Ġbarred
Ġthereby
Ġpartnered
Ġposing
ĠShannon
ĠChapel
Ġtechnically
uous
Â»
ometer
Ġwildfire
share
heart
Ġammunition
Ġthrive
ĠStre
GP
cÃ©
ĠMonaco
goal
ĠUm
ĠHSBC
ĠHilton
ĠViv
ĠKell
Ġdecisive
Ġmotive
amo
feld
ĠWH
iry
ulu
ĠSchneider
Ġcampaigning
Ġseparately
igo
ĠED
ĠRamirez
Ġmetro
ĠPatel
ĠChi
ĠAudi
Ġcharacteristics
Ġrestart
Ġkeyboard
ĠSD
his
biz
ĠSoft
ĠGrammy
Ġcontested
Ġweekends
Ġ112
Ġcycling
Ġhealthier
ija
Ġheader
Ġemploy
İ
Ġshortages
ĠAsk
ĠIvanka
Ġpartisan
Ġflowing
Ġcave
ENS
Ġups
read
ouch
Ġ102
Ġforming
bot
bie
Ġenrolled
Ġconcussion
Ġaffidavit
Ġmysterious
uries
ĠMang
Ġauthentic
Ġmetrics
ĠTwins
Ġprep
IJ
Ġdesired
ĠDiv
wall
ĠTab
Ġcompet
Ġrelied
Ġinequality
Ġmanual
ĠBucks
agging
Ġcorporation
Ġbanner
Ġgraphics
Ġaccurately
ĠMeeting
Ġconsult
ser
Ġprotesting
Ġhurting
omed
tes
Ġrode
Ġstartups
Ġhanding
ĠNest
Ġconsistency
anned
dem
ĠLyon
ĠCompetition
Ġtricky
Ġcos
ĠBengals
arry
Ġunderwent
ĠKit
à
uploads
Ġskate
Ġ''
Ġjun
ĠContent
focused
lat
ĠExp
ought
Ġnightmare
ĠExpect
Ġprecisely
ĠMonica
Ġlobbying
ĠChester
ĠInvest
Former
Ġimminent
ĠNL
Ġcomparing
ĠChes
ede
ĠNobel
mers
ĠKin
ĠBoko
ount
Ġthoroughly
Ġscattered
sharing
markets
ĠMis
Ġambition
Ġpreference
Ġeffectiveness
rio
Ġheavyweight
Ġovert
anya
ĠKanye
ishi
Ġrewards
uled
bach
Ġemphasized
Ġapologize
ĠRecent
!!
Ġanimated
ĠExxon
Ġfruits
Ġstripped
fold
ĠIndonesian
ller
Ġdementia
Ġkidney
Ġhalted
years
Ġconcerts
Ġrefers
ĠFri
Your
irl
Ġleap
jud
ĠHugh
ĠFO
Ġsore
Ġkil
ĠMate
cci
Ġsetback
Ġtightening
keeper
ĠAlbany
Ġpolicymakers
Ġdisorders
ĠCBC
ĠDiaz
Ġmaps
Ġroutinely
Ġverify
Ġbash
ĠJinping
Ġdisasters
ĠMonroe
ĠLouise
JP
ĠNevertheless
Ġconcessions
ĠPog
going
ĠFifth
ĠJill
ICT
ĠFM
ĠSugar
ĠBarb
Ġmidway
Ġtin
ĠPic
ĠPL
Ġleaks
Ġgrief
Ġtattoo
`
Ġment
ĠNu
Ġmarry
Ġdiving
Ġ1982
Ġcoin
ĠPoc
Ġstarred
ĠRiverside
Ġsidelined
Ġminers
STON
Ġbelongs
ĠSantos
ĠTechnical
aco
Ġadvise
Ġstreams
Ġcooler
ĠHE
Ġordering
ĠTask
ĠACT
ĠAnton
Ġcertification
ĠLeafs
ĠTS
ĠSerbia
azi
inks
ĠEST
Ġrelay
Â°
Ġdisappearance
ĠRomania
Ġoven
Ġowed
ĠStrip
ulated
UC
ITE
bling
Then
ppy
Ġunlimited
Ġcalories
Ġmerchandise
Ġblonde
ĠSpicer
performing
Ġimpl
Ġplates
Ġmosque
Ġdemon
Ġought
Ġdumped
Ġtracked
even
Ġstabil
imet
ĠLiga
ugh
ther
agar
Ġarchitect
Ġallocated
ĠJoey
Ġmarathon
master
ĠBert
Ġast
ĠEbola
ĠConservation
nic
Ġparallel
Ġinmate
Ġlocate
Ġdistribute
guard
Ġtackling
ential
Ġvi
Ġcups
Ġrhythm
Ġendured
ĠHub
ois
ĠLiberals
ĠRedskins
ĠEP
ĠKnox
fr
Ġmassacre
oka
Ġcompl
raft
ĠPublished
Ġattraction
ĠStephens
ility
ĠPul
ĠCapt
Ġexploded
Ġexceeded
lying
Ġcal
Mart
Ġpaintings
inate
ĠBrendan
Ġfortune
onductor
Ġphysicians
ĠStudy
ĠBul
ĠModern
HD
ĠBour
Ġtying
Ġ1967
Ġlighter
Ġtoss
inspired
Ġgreeted
Ġcycl
Ġverified
Ġmerit
sign
lder
Ġdebts
ĠSnyder
Ġamendments
Ġindicators
ĠDortmund
then
ĠListen
ĠFB
ref
ĠIoT
ĠBrewers
ĠLeadership
ĠNicolas
ĠBody
Ġsam
ĠAdvisor
Ġcord
Ġabuses
ĠPortuguese
Ġflown
VR
Ġconsumed
Ġreass
Ġalien
Ġrivalry
ĠREPORT
ĠRush
Ġdirecting
Ġsearches
ĠHP
ĠRoll
ĠFay
ĠClare
Ġhaul
Ġriot
Ġsettlements
Ġnorm
Ġaccelerated
ĠLok
Ġclever
Ġhyd
Ġstats
ĠHull
kers
Ġbuys
uter
Ġfue
https
UD
Ġisolation
Ġsuspend
ĠRules
ĠCircle
ĠHopefully
played
âĢ³
ĠPRE
sim
edd
ĠProperties
Ġbeans
Ġrevive
ĠBir
oug
Ġmob
Ġshowdown
iman
Ġpap
Ġvol
wu
Ġdiver
Ġpill
ĠMarlins
ĠLamar
Ġpersistent
Ġcondolences
ĠThor
Ab
Ġimpress
ĠRaptors
Ġreferences
Ġstiff
ĠBash
eding
Ġmurders
ĠGene
ĠManila
Ġbrokers
Ms
start
ĠDhabi
etz
Ġsubmission
ĠSchmidt
ĠPersonal
ĠBeverly
ĠMovie
ĠLamb
Ġplacement
Ġfolk
Ġfrequency
Ġplanted
Ġtwins
prov
rec
Ġpermanently
Ġcoordination
ĠCart
Ġobstacles
Ġliterature
Ġtu
Ġchill
ĠReserved
Ġlovers
ĠOutside
Ġslideshow
ĠGru
Ġty
Ġsalad
Ġlaboratory
ĠHolt
Ġ103
urb
ĠOrganisation
ĠAndrews
Ġrecipient
arch
Ġbleeding
ĠPand
Ġoverturned
Ġlistened
Ġclause
Ġnationalist
Ġresumed
ĠCout
ĠPride
Ġlayers
ĠBella
Ġreversed
Ġpriest
ĠFX
Ġalbeit
Ġhalfway
Ġcotton
ĠCarey
ĠTE
OCK
Ġbuck
ributes
ea
Ġfancy
ĠBuc
Ġbans
uters
Ġliabilities
ĠSou
ĠBernie
Ġintervene
food
ĠNDP
Ġinsist
Ġcontracted
hawk
),"
ĠDawn
Ġmol
Ġcommissioners
Ġstranded
Ġoverwhelmed
Ġrecipes
Ġva
Ġrad
Ġscare
rez
Ġeliminating
Ġresc
ĠBreak
chn
Ġdelight
iot
Ġfreely
TI
ĠBluetooth
ĠMonth
ĠFlor
ĠFreddie
Ġtrailed
Ġinvestigative
Ġimposing
Ġattracting
awk
ĠSherman
Ġsucceeded
Ġvent
Ġreconciliation
ĠCel
ĠThroughout
ĠDowntown
ĠBrother
Ġtraditions
Ġmir
Ġstamp
tery
etti
isch
tic
Ġbanning
loss
ĠSpeedway
Ġstalled
ĠEN
ASH
thing
ĠAppeals
rac
Ġdistress
ĠConservatives
ĠPremium
usa
Ġslump
imm
ĠSupp
ĠWong
Ġdistant
Ġ104
Ġtide
ĠNorfolk
ĠYang
Ġsmashed
ĠBarrett
inho
Ġrobbed
ĠFarmers
filled
BT
Ġautumn
Ġtemple
ĠJacobs
Ġprecipitation
ĠHours
ĠFlight
Ġbeside
ĠOre
!)
ĠTurnbull
Ġpig
Ġcooling
Ġservers
oriented
Ġlocks
ĠSears
aving
ĠQuick
ĠGlob
ĠMining
Ġhorizon
arians
ĠOm
writing
Ġbelieving
Ġbon
Ġmounted
Ġpunt
ucci
uzz
cul
Ġkiss
ĠOnt
ĠCyprus
Ġrelying
Ġpiano
Ġcure
Ġcontinuously
ĠNobody
ĠBund
osis
ĠAurora
ĠBach
ĠKendall
Ġechoed
iable
Ġconscious
Ġmonster
omo
proof
ĠNate
Ġfilmmaker
ĠNaj
Ġvendor
ĠFoot
ĠChang
ĠFest
Ġselfie
Ġenters
ĠConor
ĠMosul
ĠWHAT
Ġwa
ĠGamb
osta
Ġcautioned
ĠTucker
ĠAirways
Ġvisitor
ĠÂ·
ĠRevolution
aching
Ġearliest
ĠQuality
Ġshorts
ube
ĠOperation
ĠSabha
Ġstrengths
ikes
Ġsexy
Ġrot
ibles
Ġcolours
THE
ailed
Ġwoke
ĠEmbassy
Ġinfamous
rov
State
âĢ¦.
Ġpond
Ġcapt
fore
De
Ġedited
self
Hey
Ġportrait
ĠManufact
ĠStand
Ġcontenders
':
acker
Ġwithdrawn
ĠBraves
ĠHosp
changing
ĠBag
Ġadjustment
ĠCousins
ĠAAP
Ġfi
Ġoutdoors
Ġlacked
BM
ĠWHO
ĠPST
ĠLuck
Ġassisting
ĠGround
ĠTeen
ĠOle
Ġembarrassing
ĠWalt
ĠVision
ĠFal
ĠZoo
ĠWorth
ĠFloyd
ĠGujarat
Ġtipped
Ġfam
ĠDad
Ġworship
Ġtyre
Ġrebuilding
Ġqualities
ĠLives
Ġbeats
Ġ450
Ġexisted
ĠGeorg
Ġpoured
rows
ĠOx
ĠSid
Ġmac
Ġteaches
ĠEli
alla
Ġdownside
ĠBend
non
ĠArmenia
Ġcultures
ĠMae
Ġduration
ĠAthletics
Ġjuvenile
Ġlid
Ġbankers
Ġoverview
wy
Ġorbit
Vs
because
Ps
ĠFran
Ġtouring
Ġwary
Ġ106
Ġlaser
ĠVij
âĦ¢
Ġsurrender
press
rees
NO
ĠShortly
ĠKor
edu
Ġhatred
Ġtee
Ġfamously
Ġkeeper
ND
Ġreduces
HC
Ġhay
Ġunnamed
ĠTes
Ġattackers
ĠFew
ĠRichards
Ġ1968
Ġspeeches
Ġcybersecurity
ĠInfrastructure
Ġ07
ENCE
uties
Ġanxious
ĠGang
Ġannouncements
lette
oret
ĠRockies
ĠEmployees
ĠThrones
Ġhugely
Ġclin
ĠHob
Ġfraction
ĠOfficial
ĠMariners
ĠElse
Ġsanctuary
ĠPhotograph
Ġreopen
lf
hm
vest
Ġspeeding
Ġtooth
ĠShi
ĠTitle
ĠMes
ĠJobs
fair
ĠDanish
ĠMalik
Ġlaughed
Ġnavy
ĠActress
ĠWilliamson
overs
Ġreckless
Ġjo
otic
Ġassaulting
Ġpri
ĠPi
Ġlesser
Ġtit
Ġdat
Ġnail
ĠMarathon
ĠGren
ĠDol
Ġjointly
Ġamended
mine
ĠBashar
ĠHyundai
Ġuncovered
Ġeducated
atti
pres
ĠBRE
Ġya
Bank
odd
lit
ĠLinks
Ġswitching
itte
ĠSind
erved
Ġ**
Ġpositively
Ġfrankly
Ġrevenge
ĠTrinity
ĠCDC
Ġthreatens
Ġhammer
NET
ĠMut
Ġsy
Ġunidentified
icken
Ġdrills
Ġtense
Ġforeigners
OST
Ġethical
ĠDurham
ĠQual
Ġterritories
Ġid
hor
enders
Mc
OV
percent
Ġdom
Ġupward
Ġamb
Ġvisas
zan
Ãĥ
Ġundocumented
Ġsuburbs
Ġhydro
ĠJob
ĠAdelaide
oya
ĠSR
ĠMick
Ġconsolidation
Ġemotionally
ĠHop
Her
Ġloses
ĠMoto
eled
Ġregulated
ental
Ġencountered
Ġhop
ĠTrafford
Ġsticks
Ġveto
Ġexpose
Ġstretched
fin
inance
chair
ĠGareth
ĠPil
ĠHammond
Ġserial
omy
Ġcellphone
ĠClara
Ġreacted
ĠNic
ĠHomes
ĠBroadcasting
ĠFut
ĠSupply
assing
ĠNewman
Ġcharitable
ĠClayton
Ġsovereignty
Ġconvincing
ĠPrincipal
ĠHigher
ĠCut
ĠCarrie
ĠSpot
Sometimes
ĠJar
ĠConsider
ieu
Ġrefinery
Ġbloody
wheel
Ġcryptocurrencies
Fund
ĠSunderland
ĠEvents
âĢĭ
Ġaccidentally
deep
Ġfranc
bec
ĠHartford
Ġstellar
wright
kick
UG
ĠBeast
Ġrefusal
ĠRoberto
ĠDixon
ĠDiane
name
asts
ĠCharter
Ġfueled
Ġcontents
Ġaccessing
Ġtroubles
Ġtops
Ġdebuted
icating
Ġinvestigator
Ġsubscribing
Ġcoordinated
ĠFil
six
teen
Ġwithdrew
ĠGilbert
Ġ1983
arsity
Ġimagination
Ġhandgun
ĠAlibaba
Ġbug
Ġ107
ĠCOMP
ĠSomething
Ġreliability
ĠFCC
ĠFowler
Ġsingled
nom
Ġknocking
Ġmeddling
Ġdetermining
reports
Ġshade
ĠSN
anto
Ġcomplaining
ĠNan
WS
Ġyoungsters
Il
ĠKaw
ĠProp
ĠCell
ĠHurricanes
Ġpublicity
ĠXin
rial
ICO
Ġsupervision
ĠSpotify
ĠNewport
Ġprince
anche
Ġsubscriber
ĠVic
ACT
ĠRaf
ĠActing
Ġcollusion
pet
isl
Ġcommerce
Health
ĠAbraham
pri
Ġlightweight
Ġinsurer
Like
Ġhelmet
Ġevac
look
ĠNaval
160
ĠFleet
vol
Ġexpired
ĠKlein
ĠEmmy
ABLE
ĠMorocco
ĠTrip
uted
Ġnos
ĠVista
mas
ĠRocky
ĠFlint
enberg
ĠBrow
Ġsignatures
Ġpolar
ajo
Ġendorsement
Ġreservations
LIN
anny
elli
last
Ġoversee
cm
ĠOilers
Are
Ġjudiciary
onte
ĠTrack
Ġsupervisor
erk
isher
Ġintact
Ġslid
icals
paid
ĠMAR
lement
ĠLiu
ĠLarge
ĠWings
pect
ĠRum
Ġanalyzed
Ġemploys
arte
ims
ĠEventually
Ġaffiliated
Ġhospitality
ĠSprint
Ġresolutions
Ġliquor
ĠNAFTA
ANY
Ġradiation
ĠProv
Ġpause
ĠTMZ
Ġelbow
Ġresilience
ĠParents
mus
ĠSafe
Ġinterpretation
Ġraced
IND
KR
Ġhinted
ĠErin
ĠBahrain
Ġcredentials
eless
Ġprocurement
ĠWebb
ĠLowe
ĠNak
ĠLearning
zh
Ġdipped
ĠSuite
Ġmisdemeanor
ALE
Ġstrengthened
ĠSophie
Ġconfirms
Ġrac
gey
Ġshootout
Ġble
Ġcircles
ĠChef
Ġcomprised
ĠSantiago
Ġfeud
beat
Ġstaffers
Ġacute
ski
Ġpolled
ĠKur
ĠJen
ĠUltimately
anded
ĠHoney
Ġannounces
Ġamateur
around
Ġfunctioning
group
ĠSqu
Where
Ġvoid
ĠSandra
isers
Ġhelicopters
ĠGym
ĠWol
mouth
Ġsubjected
ici
ually
ĠWash
ĠLindsay
ĠVers
Ġjumps
Ġneglect
ĠKuwait
fund
ĭ
ather
lly
ei
Although
.''
Ġunhappy
Ġpills
Ġmagical
Ġdro
Ġinviting
ĠJohnston
oving
450
ĠMerc
Ġadmitting
Ġinsisting
ĠCru
ĠResource
oir
Ġcomplexity
ĠRoth
ĠCher
July
raf
Ġaggregate
Ġhelm
uclear
olan
Ġoffenses
ĠWolves
ĠFu
ĠPierce
Ġemailed
ĠStra
Ġpedestrians
ĠER
ĠConway
Ġblowing
CLOSE
hab
ĠGreene
Ġconfessed
ĠTorres
ĠHolocaust
Ġrepay
Ġdemonstrates
ĠPool
gent
Ġdeleted
Ġ$$
ĠSO
Ġdri
ĠNeg
ĠVP
ĠPF
ĠPrep
Ġorganizing
icker
Ġmanufactured
enson
adas
Ġwines
Ġmachinery
Ġspecialists
ĠDetective
ĠDL
Op
Ġquicker
ĠPenguins
Engine
zone
Ġsequence
ĠLost
Ġwarmer
ĠEthiopia
Ġaffirmed
fest
resses
Ġsoap
Ġbooth
Ġnotorious
amin
Ġpursued
ĠCer
ĠSB
Ġlivestock
Ġtrace
Ġrespects
arden
April
Ġ128
ĠSaid
ennial
Ġnamely
ĠBot
Ġ108
ĠLem
nell
Ġconfirming
Ġlogged
Ġprofound
elo
ĠChambers
RT
Ġnewer
Ġsideline
ĠCardinal
este
Ġnarrowly
Ġcompromised
Ġpolicing
Ġporn
Ġarc
Ġlearnt
INE
step
ĠDomin
Ġwaist
Ġboycott
mitted
iffs
ground
ĠMaterials
Ġceasefire
Right
ĠZen
estyle
Thank
ĠOnePlus
ĠMLS
Ġconstituents
oster
ĠProsecutor
Ġpriorit
ĠDebbie
ĠExpand
uv
Ġintegrate
Ġimmun
Ġdisciplinary
ĠImm
Ġja
Ġgardens
ĠHim
obe
Ġhitter
Ġbullets
Ġevolving
ĠScientists
Michael
ĠDO
Ġunbelievable
Ġlooming
Ġdownturn
Ġmentality
Ġreopened
Ġash
ĠChapman
Ġloop
ĠUT
ĠTier
Ġunaware
Ġgratitude
Ġperforms
olk
Ġ"(
Ġlacks
Ġinstructed
ĠRecreation
sample
Ġrequesting
Canada
Ġsupposedly
ĠHardy
Ġholder
change
ĠDominic
ĠXavier
Ġlig
Ġcandid
ĠRab
Ġconferences
ĠBurton
Dr
Ġmunicipalities
Ġcrushed
Ġseekers
ĠCitizens
Ġheightened
ĠCasino
Ġdesktop
Ġwhoever
ĠImpact
Ġcocktail
Ġphilanthrop
ĠSAN
ĠPreston
Ġobesity
Ġrestrict
ĠKab
ĠProvidence
Ġscar
ĠChart
Ġbosses
ĠRate
Ġsav
pay
Ġtransplant
ĠNoble
child
Ġconclusions
FI
Ġsack
Ġexperimental
holder
oca
herty
ĠMT
Ġcatcher
LY
Ġgrams
reet
Ġadaptation
Ġhumble
Ġbot
Ġidentical
ication
ifer
ĠCrow
Ġregain
ĠLightning
Ġkg
Ġcomposed
Ġcorrespondent
Ġreunion
Ġobserve
Ġcomprising
Ġimpeachment
Ġresh
Ġlemon
ĠSnap
Ġproprietary
een
ourt
Ġdetective
Ġlabels
Ġcorridor
ĠClinic
Ġarra
ĠPearl
Ġinformal
ĠUnd
ĠVenezuelan
Ġpeninsula
Ġdefeating
Ġsyndrome
iere
Ġspite
bag
aran
Ġspecialized
ĠAA
ĠLyn
Ġinstrumental
Smith
Ġpivotal
Ġnightclub
ĠCob
Ġcolorful
Ġartwork
Ġ1981
Ġdawn
erville
uated
ief
Ġlinking
ĠOw
Ġappreci
Ġreductions
elling
Ġsalmon
bb
ĠPhillip
yle
Ġassure
Ġdiscretion
Ġefficiently
ĠMau
abil
Ġintentionally
Ġactivated
Ġimmense
ĠStrategic
Ġcheating
ĠTrend
ĠSamantha
Ġcomple
Ġhack
ĠSerie
ĠText
Ġstylish
ĠFaith
ĠGST
Ġexterior
Ġblessing
Ġblanket
Ġcooked
Ġretaliation
Ġtro
Ġshelves
rose
ĠGram
Ġsho
ĠArgentine
Ġclerk
specific
Ġagreeing
Ġstandout
black
Ġtrending
Ġviolate
Get
Ã±o
ĠOpt
ĠFrankfurt
ĠFranco
eness
Ġlining
Ġzoo
oil
lia
rab
Ġorganize
Ġwoods
Ġscan
Ġurgency
Ġoccurring
Ġreliance
Ġconcepts
Ġeligibility
0000
ĠBrief
Ġabusive
ĠBench
Ġrub
ĠDil
Ġmount
Ġmaturity
ĠNut
nee
enc
Ġgunfire
ĠKill
Ġgates
Ġflower
iol
Ġshaped
Ġundoubtedly
Ġbackgrounds
ĠComplex
":{"
Ġnaming
Ġmonument
Ġoh
Ġembedded
Ġbang
ĠKro
Ġaggression
ĠMits
During
ĠEp
iners
ĠAnaheim
Ġrom
Ġoutgoing
Ġfulfill
Ġreminds
Ġren
à¤
ĠSue
Ġrefresh
Ġlif
Ġfil
ĠLead
Ġregulate
ĠTeachers
Ġclarify
obs
Ġblasted
ĠAx
Ġflavors
Ġmega
Ġhurdles
Ġinspector
ĠSalvador
Ġprescribed
Ġrenovation
OUR
Ġutil
ĠBradford
Ġwasted
Ġlineman
Ġpalm
icate
Ġoverseeing
otted
ĠRapids
Ġjustified
aby
Ġextends
Ġoath
bow
ĠRivera
Jan
ĠImran
Ġforests
ĠShel
ĠBrun
Ġaerial
ĠNOW
PAR
Ġbeverages
ettel
Ġfragile
Ġcodes
Į
abel
Watch
road
Ġdismissal
ĠRosa
Ġcrunch
²
Ġinnovations
Ġhabitat
Ġforefront
ĠKoch
ĠChevrolet
Ġwheelchair
Ġconsiderably
Ġexpenditures
Ġtexts
Ġprompt
Ġskating
Ġpetroleum
ĠICC
Ġvit
fit
Ġprolonged
ĠLucy
Ġcho
Ġrocked
ĠBrom
Ġfreed
Ġyours
ĠEden
Ġmonitored
asted
Ġoversees
ieri
Ġideology
ĠFine
tering
Top
Ġdamp
uta
Ġlethal
Ġpurple
udge
ĠChemical
ĠPetersburg
Ġwarns
Ġcollectively
Ġâ
Ġplaintiffs
ĠBoris
Ġsheep
oves
ĠAuthor
Ġcampuses
Ġdestroying
Ġgloves
Ġcease
Ġdelegates
Ġpreceded
realDonaldTrump
Ġforwards
erton
ĠBuzzFeed
Ġoccupation
ĠLegion
Ġstir
Ġshale
Ġterrific
Ġnewborn
Ġstandoff
OWN
Ġmuscles
ĠHerman
ĠLiz
ĠExperience
ĠSuccess
ĠHispanic
ĠCCTV
Ġcomplement
ĠBing
Ġprem
ĠJohannes
Ġdent
itar
ĠHein
ĠNicola
Ġconcludes
ĠKhal
Ġparish
Ġshaking
ĠSchw
mod
ĠLil
Ã±a
ĠBog
ĠFight
Ġgre
Ġfel
Ġheal
err
TM
airo
health
Ġswings
Ġtier
anka
ribune
emouth
ĠBloom
Ġowing
Tech
Ġdough
Ġbatch
ĠLion
ĠZamb
Ġcrashing
ĠXL
ppers
ĠDoctors
ĠSor
video
Ġcigarettes
ĠBoxing
Ġconstitute
Ġconcentrate
ĠArmenian
Ġsemester
position
emic
ĠNYC
ĠCampus
Ġalternate
Ġexped
Ġpublishers
2015
Ġunanimous
ĠPrevious
Ġwellness
ĠCreative
edy
AGE
ĠCavs
Ġ1978
Ġfu
ĠTata
ĠChoice
Ġwoes
ĠCable
Ġ~
ĠGem
Ġconsolidated
ĠManitoba
Cloud
Ġrounded
ĠVentura
Ġshark
Ġdresses
Ġtraction
eda
Ġdiv
Ġdental
Wh
ĠGig
ĠBoyd
ĠTransit
Ġtelevised
SON
ĠVince
Ġcloses
apt
ĠWheeler
ĠTyson
Ġforensic
Ġpunished
Ġseas
Ġnavigation
Ġprecedent
Ġextremist
Ġcomposite
PO
Ġsurvivor
ĠVale
gars
HT
ĠRiyadh
Ġrevival
ĠPayne
Ġcollaborative
ĠCustomers
ĠPf
Ġproves
erve
Ġelev
ĠPaper
Ġchore
Ġthriller
Ġstraw
cock
Gu
Ġaligned
ĠChronicle
Ġshouting
Ġ1976
Ġlightning
Ġworlds
ĠOpening
enton
ĠAna
ĠGol
ĠTechn
lis
Ġorientation
ĠArri
ĠPG
ross
Ġsank
LOS
ĠAllison
Ġsmiles
USD
Ġkits
Bar
ĠBri
Ġounces
ĠNielsen
eno
Ġ109
Ġnorms
Ġskip
180
Ġmonitors
2012
Ġincorporate
Ġmechanisms
ĠHack
ĠBomb
ĠGavin
ĠNatalie
Ġdiscusses
Ġassembled
Ġcognitive
owner
Ġgenuinely
Ġdisappear
ĠAK
Ġstal
Ġsoup
ĠFinn
Ġcares
Ġfinest
Ġtuned
ende
ĠStefan
Ġaccompanying
Ã®
Maybe
Ġoffender
TT
Ġ212
Ġvolleyball
needed
Ġquo
Ġdim
ĠHistorical
ĠLance
gmail
ĠGate
Ġdemonstrators
Ġdy
cia
ĠSteele
ĠJoan
ĠKerala
KA
ĠElectoral
Ġpaths
Ã¸
Ne
Ġaccepts
Ġlowering
Ġportions
ĠValencia
Ġfestivals
Ġgeneric
usk
ĠVernon
ĠOrioles
Ġrenewal
Ġbelonged
Ġbreathe
Ġ220
Ġrecruited
Ġlogic
Ġrecreation
Ġverbal
ĠHaz
double
Ġfavourites
Ġfundamentals
ĠSoc
360
SO
Ġalerted
Ġbriefed
ĠBruno
Ġseating
Ġfreight
ĠAmer
Ġwished
table
growth
ĠWent
Ġhilarious
Ġthroat
bet
gon
Ġample
hee
ĠHood
ĠIceland
ĠAnkara
iang
Ġpracticing
azer
Ġleaf
Ġhottest
Ġmarginal
Ġrevelations
ĠPrices
ĠLar
times
Ġhandles
ĠNaz
Ġinstitute
Ġtranslate
ĠJP
Ġsoared
Ġconsume
ĠTap
ĠCelebrity
ĠMayweather
ĠOracle
Ġmor
ANA
Ġpaperwork
aste
Ġdil
Ġdecorated
Ġpromotional
ĠMerrill
Ġappliances
ĠCOP
Ġlips
ĠBrennan
ĠMile
ĠNetworks
ĠComment
ĠIb
ĠAgg
IDE
Ġinitiate
Ġknockout
Ġbargain
Ġaccordingly
bee
ĠGerald
Ġproblematic
Ġtrap
Ġfinalists
addy
would
Ġstrictly
ĠRamsey
Ġdownward
Ġextract
Ġfamed
ĠOUT
Ġinduct
ĠAuckland
Ġpoetry
mos
ĠGuinea
management
ohan
ĠGuide
aily
umping
Ġenacted
ĠEye
vision
umi
aped
Ġbicycle
ĠHouth
ĠNAS
Ġtapped
wer
otti
EA
Ġsurprises
ĠUpdate
ĠPun
ĠMiz
ĠOro
Ġcostumes
title
Ġsurviving
According
themed
ĠPeoples
Se
Ġassociations
hett
Time
Ġessay
Ġmu
ĠScore
ĠSpani
ĠSEE
Ġmales
Ġrage
EU
ĠYellow
rupt
Ġapparel
Ġsweat
Ġnearest
zman
Ġanticipation
Ġinjuring
Ġousted
chan
ĠAlert
Ġber
atal
Com
Ġ04
Ġafterward
edge
ĠBooker
lex
ĠWhole
Ġtoughest
ĠMaharashtra
lier
ĠTennis
Ġhandy
ĠMetal
ĠiTunes
ĠDiscovery
Ġcompassion
ĠLIVE
Ġeconomically
Ġendangered
GO
Ġmound
word
ĠTouch
ogo
Ġincomes
when
ĠAside
Ġscandals
Ġfunctionality
ĠAer
Ġcouncils
Ġdenial
140
Ġimplied
Ġoutfits
Ġsuited
Ġ1973
ĠPizza
Ġdebates
record
Ġhype
ĠRus
ĠRobbie
Ġtouted
ĠSharp
Ġbeings
Ġslavery
encies
ĠRooney
Ġnan
Ġraids
Ġinstructor
Market
Ġshook
Ġdeliberate
ĠNorthwestern
ĠEss
Ġwhatsoever
ĠConfederate
YS
ĠCameroon
ĠFlip
Yeah
Ġwashing
mand
ĠLex
Ġissuance
Ġniche
Ġfold
ĠWendy
Ġhy
Ġbucket
ĠVW
ĠCairo
ĠSK
ĠKang
Ġintake
Ġhills
anz
Â©
ugu
ĠFortunately
ĠMarqu
Ġimprisonment
oking
Ġdistributors
zie
Ġstip
ĠWire
Ġcouncillors
Ġsue
ĠRegardless
ĠEnc
Ġbaking
ĠVenture
Ġintriguing
Ġupheld
ĠActive
Ġgenes
ĠDawson
ĠPreviously
ĠRac
Ġmetric
Files
ĠiPhones
ĠWelcome
Ġburns
ĠScreen
ashes
ĠApr
Ġtheories
san
ĠRenault
ĠSinger
Ġfounders
Russian
ĠBelfast
Ġimagined
ĠPlanet
ĠCatalan
ĠRochester
Ġevolve
ĠOT
Ġpassword
Ġhomelessness
Ġbacklog
Ġpresenter
Ġfal
ISH
ĠEM
icked
Ġunlock
city
Ġnegotiation
Ġdancers
dan
ĠCOL
VC
boat
Ġoverly
deal
lander
Ġdiss
ICS
Ġfifty
Ġowe
Ġprisons
ifications
wo
ĠAu
Ġapiece
ĠCourtney
Ġ1975
Ġsurpass
Ġidentities
Ġintegral
Ġdocumentation
Ġelegant
ĠIg
Ġdear
Ġ113
ĠGupta
Ġcontentious
rish
Ġclues
Ġadditions
Ġep
rus
Ġcentered
ĠPhillies
father
Ġborough
Ġbuttons
Ġdeported
ĠREC
ĠAlready
eh
hur
Ġupbeat
omen
Ġdetailing
Ġwr
Ġvaried
ĠEconomics
Ġensures
ĠCivic
Ġunpaid
sold
ĠHil
ĠMult
ĠRising
ĠMini
Ġneuro
Ġpenal
Ġneighbour
ĠChavez
Ġjew
ĠVIP
Connor
ĠTalking
Ġcorrection
Ġstandpoint
roads
ĠWool
Ġverification
Ġmic
olf
Ġexemption
Ġfilter
Ġballoon
leases
ician
ĠSpr
Ġtoe
Ġunconstitutional
Ġmanslaughter
Ġtossed
ĠMeg
ATIONS
ACK
ĠRouge
ĠHansen
ĠHook
Out
ĠHorse
ĠBath
ĠAlways
Ġincorporated
Ġconjunction
ĠFit
Ġexamining
Ġwallet
Ġensured
Ġacclaimed
ippers
Ġbeneficiaries
Ġunexpectedly
Ġexploit
ĠWillie
Ġcomb
ĠWalton
rica
icky
Ġate
ĠPadres
Ġrib
Ġsnacks
ĠFernandez
ĠMachine
ction
Ġillnesses
ĠHoffman
ĠSpaceX
Ġju
Ġswift
Ġembark
ĠRailway
Ġmeasuring
agers
arsh
Ġessence
angle
Ġolive
ĠCommander
iggs
Ġrewarded
Ġdispatched
Ġplayground
Â½
ĠProgramme
Ġstudios
Ġskeptical
ĠOlymp
ĠKeys
ĠSunshine
amba
ĠDonna
Ġlightly
Ġobtaining
Ġpoisoning
Ġaz
Ġ1972
Ġunconscious
ECT
Ġlied
ĠKaz
Ġ06
ĠMoving
Ġnum
oral
Ġassessments
Ġscholarships
Ġevacuate
ĠSunni
Ġquake
Ġfort
ques
ĠAlonso
Ġthread
Ġsqueeze
arat
oly
ĠAlphabet
uting
icio
ĠRetirement
ither
Ġasleep
Ġpairs
Ġmanufacture
ĠHazard
Ġsidewalk
Ġwears
ĠCraft
emen
ieth
Ġbypass
ĠLancaster
Ġflour
charge
ĠCLICK
Ġpotatoes
ĠKarachi
Ġvalley
Ġsights
Ġfallout
ords
BN
Ġsunshine
Ġundertaken
Ġcontestants
Ġaccomplishments
Ġconditioning
Ġcel
ĠHalifax
Ġaccent
***
Ġpitchers
Ġadopting
Ġjustices
Ġrip
ince
Ġelimination
Ġaerospace
ĠBeer
ĠBasin
Ġunwanted
goers
isco
ĠTwin
ĠDesert
rix
Ġdarkness
ĠDunn
City
pop
Ġ1969
ataka
Ġtal
Ġautism
ĠMcLaren
ĠUEFA
Ġclassrooms
ĠLeave
Americans
las
Ġqui
Ġundefeated
otto
ĠNRA
ĠPorsche
Ġnuts
oys
ĠMethodist
Ġatt
Ġtweeting
children
eller
Ġinquiries
Ġmillennials
ĠWembley
INS
Ġautopsy
ĠElon
ĠHicks
ugg
Ġwreck
ĠComcast
Ġstones
public
ĠKem
bedroom
ļ
itated
Ġsemic
uman
Cal
ANN
ĠGaz
Ġundisclosed
ĠPlanned
ĠYale
ĠIST
lies
ĠStanding
Ġrelieved
EO
Ġgraduating
park
ĠâĢķ
Ġpensions
rave
ĠWonder
AZ
Ġcosting
Ġeditors
Ġtotaled
Ġspacecraft
meter
Ġ02
ĠNikki
sworth
ĠCrit
asha
Ġknees
Ġhats
uity
ĠPanther
Ġtan
ĠBuzz
ĠGlad
ĠPleasant
SM
Ġtricks
Ġplac
ĠDanielle
Ġours
Ġwashed
haven
Ġdrain
ĠUttar
Ġapple
Ġjunk
Ġturkey
ĠDug
Ġdiplomacy
Ġempire
Ġpinch
Ġferry
ĠDustin
Ġ03
Ġelder
Everything
ĠProgressive
ution
VI
dam
Ġlever
ĠAustralians
Ġconsequence
itan
Ġcondemn
Ġneg
ĠOverview
Ġsuccesses
Ġprobable
ĠMirror
mor
verse
Ġevaluating
ĠBes
Ġimm
Ġharness
Ġresilient
ĠBuild
Ġstraightforward
ADE
Ġgrandparents
Ġmarched
ĠKiev
Ġchiefs
oha
Ġvest
kn
enda
ĠSev
Ġbatters
ĠJos
ĠQue
ĠCourse
ĠCorner
ĠMess
Ġmourn
keepers
ĠRegina
Everybody
Ġtrajectory
Ġdefenseman
ĠArticles
Ġspur
ĠPhD
Ġpipes
Ġduck
Ġcombining
ĠHit
ĠGeorgetown
ĠBee
Cor
Ġcomposition
Ġconnects
ĠMARK
taker
Ġcertainty
Ġhefty
ĠHezbollah
ĠShip
Ġmalicious
AI
Ġbits
Ġstyl
Ġimpaired
ĠCBI
Despite
othe
ĠRyder
ĠAlf
ifa
Ind
Ġblaming
ĠToledo
EW
ĠEssex
iated
ĠAberdeen
ANCE
Ġpossess
Ġsuperhero
Ġoverhead
quet
ĠRicky
Ġdock
ĠTelecom
Ġshelf
³
Ġmaritime
Ġportrayed
ĠYesterday
Ġcollided
Ġcookies
ĠCul
Ġindexes
Ġnaval
oval
105
ĠWeber
chief
arma
ĠRey
Ġauditor
ĠMarion
ĠMartha
ĠSally
Ġsedan
ĠAlison
nce
Es
ĠParade
Ġpharmacy
ĠKre
loe
cks
Ġmitigate
Ġdesigning
Ġ2024
Ġportable
Ġimproves
ĠAMD
Ġexcluded
CON
ĠOscars
Ġfixtures
comb
ĠBerg
Ġbother
Ġboring
Ġobservation
ĠCad
Ġrecordings
ĠCultural
Ġweaken
Ġaccuse
ĠAbd
abor
115
uffle
Ġhighways
atham
empt
ĠDeer
ĠEDT
ĠWait
athan
Ġaccumulated
Ġguilt
Ġexempt
Ġdiluted
ĠJamal
Ġshit
cross
Ġeve
Ġshirts
Ġsatisfy
ĠPaulo
AH
sic
ĠChloe
ĠCities
ĠSwansea
Ġprecision
ĠTracy
ping
Ġcontinually
Ġdemographic
Ġcliff
Ġjaw
isted
ĠDevelop
ĠAJ
Ġaisle
ĠLionel
Ġpredominantly
Ġmel
Ġlifelong
hs
Ġshouted
lad
Ġdest
Ġpacks
ĠKath
ĠCruise
fired
oder
hua
Ġgoodbye
Ġinterfere
eca
ĠrÃ©
atum
itas
ĠLodge
ĠWald
Ġmidday
umble
asting
©
ĠLeg
ĠNepal
Ġchased
idge
Ġconv
Ġfraudulent
Ġopera
Ġshr
ĠUniverse
ĠJerome
Ġ1977
ĠDancing
ĠRS
±
eks
Ġchic
Ġpunish
Ġpropose
arin
ĠChop
ĠAhead
ĠGallagher
ĠBangkok
ĠShelby
ĠNS
Ġcheek
onia
Ġrelegation
ĠHind
ĠCory
Ġfingerprint
Ġstrive
Ġmm
igs
Ġholy
Ġfavored
ĠSomeone
ĠLatino
ĠPatt
Ġchallenger
ĠCotton
Sw
itten
ĠXI
ĠStat
ĠDIS
Ġautomakers
Ġevaluated
ĠArc
Ġpersuade
Af
Ġreunited
Ġabs
Ġbride
Ġpurely
uce
uded
Ġsettling
Ġlodged
Ġfixing
Ġsuccession
ĠAlfred
ĠAlvarez
mac
ĠFont
Ġcontra
affle
Ġcopied
Ġmasses
ĠElections
ĠThan
Ġsoaring
jay
Ġsuing
Ġconcentrated
Ġconvey
Ġ240
gs
ĠNeal
Ġnasty
ĠLB
odi
ĠSergei
Ġthumb
Ġservants
Ġrevelation
Ġdischarge
ĠBright
ĠBent
ĠChrysler
mill
ĠImagine
Ġreceptions
Ġpersonalities
Ġsilly
ĠLoc
ĠZero
HI
rice
Ġgar
far
enh
ĠBiden
ĠEntreprene
Ġassumption
Ġnicely
ĠEither
|
ĠNW
ĠKens
ĠNolan
Ġowning
atures
ĠPastor
ĠRegistration
Ġexperiments
Ġassurance
Ġhashtag
oint
ĠBin
Ġqualification
center
Ġausterity
ĠPers
Ġscoop
Ġpros
ĠFields
Ġfur
ĠJas
Ġplanting
security
ĠTrain
ĠKathy
demand
ĠLev
Ġtut
tier
QU
Ġexploitation
Ġignoring
ĠSex
Ġadapted
Ġdisastrous
Ġempower
Ġcreators
ĠLay
ĠDragon
ĠWyn
Ġ1974
acious
performance
ĠTiffany
isting
Ġindividually
ĠLeading
ĠSask
Ġcatastrophic
Ġpunched
ĠVienna
Ġsurgical
Gr
odo
Ġgem
ĠMinority
Ġmice
ĠHistoric
ĠKot
caster
Ġsuff
journal
Ġpresumably
ĠBit
inary
Ġbre
Ġenhancing
Ġgru
ĠRunning
hardt
Ġtroubling
Ġpumps
ĠProspect
etic
Ġmartial
Ġcouncillor
atra
ths
ĠSark
ĠChamp
scoring
ĠWel
rup
Ġterrifying
ĠCatch
Ġinspections
Ġpornography
bra
ĠKeeping
Ġbanker
angers
ĠCrimea
ĠDisclosure
iba
Ġturf
Ġschedules
ĠJorge
ĠAcross
Ġsolving
Ġsensation
ĠWW
cial
atz
Ġlion
Ġcertificates
itive
ĠWes
ĠPrison
ĠPlayStation
duty
Ġvariable
Ġstrangers
istrates
vs
Ġreigning
Ġsliding
ĠShin
Ġtelecommunications
Ġinstalling
Ġrecogn
Ġsubway
too
ĠMcKin
ĠStoke
Ġsensitivity
bas
Ġsan
Ġ(-
ĠSuarez
Ġaverages
ammu
ĠFen
Ġrefined
outh
Ġcob
ĠLaz
essa
Ġpositioning
Three
Ġoils
Ġassaults
Ġcompanion
ĠFlash
ĠMam
ĠTill
Ġblues
ĠJae
ĠPier
Ġbedrooms
ĠHawkins
ĠCornell
Ġanswering
Ġsec
Ġrecognizes
Red
ĠJamaica
Ġinsurgents
Ġbrace
Ġra
ĠTai
ocation
ignment
Ġreasonably
inating
Ġbonuses
Ġsandwich
Ġinadequate
Ġdelicate
Ġadorable
Ġpalace
Ġsmallest
Ġpractically
ĠCrosby
Ġlevy
Ġlend
boards
shaped
Ġvulnerability
ĠKelley
Ġsponsorship
ract
Ġslew
Ġfederation
ĠLal
acies
ĠFamilies
Ġproposing
Ġhyp
elected
inkle
ĠSays
ĠApollo
ĠWis
imer
Ġcombines
Ġtim
ĠQuestion
Ġborrowers
Ġswiftly
ĠMagn
Ġheadphones
Russia
Ġtongue
Ġbye
nn
Ġseller
ĠWord
Tom
ĠDevin
ĠSurrey
Ġquad
Ġcourthouse
gi
ĠGrill
>
Ġrational
ĠFlames
ĠCham
Ġvacuum
ĠRays
Ġescalating
Ġouter
Ġstretches
ĠSpeed
Ġnegatively
Ġabsorb
ĠAustrian
Ġslice
ĠDiet
Ġbun
Ġtactical
ĠCBD
Ġedges
Ġnest
Ġstrained
ulates
ĠTina
Net
ķ
ĠGos
God
White
Ġproudly
usion
ĠArlington
ĠNear
ĠMaxwell
Ġbomber
Ġcared
Ġapprovals
Ġexams
ĠEconomy
Ġposters
ĠHampton
ĠPere
ĠContract
Ġhoused
Ġinstruction
ĠJess
Ġacre
Ġcongestion
ĠGener
Ġdioxide
Ġvar
ĠAlexandria
ĠSpider
Ġcoins
Ġ225
Ġterritorial
ĠSPD
Ġfloat
null
Ġcalculate
ĠDin
eto
Ġcows
Ġpunct
Ġexpire
Ġkidnapped
Ġcou
Ġattitudes
ĠLeh
ĠHero
ĠKabul
Ġcubic
Ġdigits
ĠRES
Ġpipelines
icide
ĠSingle
Ġhurts
ĠMaz
ĠPak
Ġslate
Ġmultimedia
ADA
Mexico
ĠRelease
chard
Ġgarlic
ĠFletcher
Ġaforementioned
Ġ05
ĠParkway
Ġfirefighter
Ġcounseling
utions
Cap
Ġconsultants
ĠMeh
ouring
ĠDI
mic
phones
Ġencounters
ĠHapp
Ġcartoon
flight
Ġundertake
ĠHans
Ġplunge
ĠParenthood
Ġkickoff
ĠCelsius
ĠRas
ĠDund
ounce
Ġpurse
Ġmortality
Ġbrains
Ġconglomerate
ĠObserver
ĠSector
ĠApparently
Ġblank
iston
Ġweighs
gro
ĠPaw
ĠCOM
ĠPurdue
Ġnetted
ĠLinux
Mike
Ġfaithful
Ġmagazines
Ġheadquartered
ĠIps
Ġindications
Look
ĠElite
Ġsupreme
Ġchunk
ĠSz
ĠVine
rise
ĠYas
general
ĠOpera
Ġpriests
Assad
Ġaunt
Ġwhopping
enzie
Ġvegan
Ġinflux
ĠConsult
Ġwaiver
Having
inning
Ġproximity
Ġclassical
ĠIslanders
Ġadvertisers
ĠCe
ĠSochi
Ġmemoir
ĠPlaying
yers
Ġstud
Ġobservations
Ġadmire
Ġhiking
Ġbatter
Ġconfusing
Ġprecaution
kil
clusive
opoulos
ĠWestbrook
ĠTanzania
ĠCedar
usted
Ġdestructive
ĠIndies
osi
ĠAmid
Ġintercepted
Ġpartnering
Ġsubstances
ĠSuns
Ġpromotes
bird
Gen
aper
ĠEy
Ġterrain
Ġ1930
zon
Ġbreed
broken
uchin
ĠPrim
ĠRoland
Ġfitted
Ġprotects
Ġ114
RP
Ġdisrupted
ĠBaylor
oren
ĠKeen
Ġmansion
Ġgrassroots
ĠVictory
Ġbarn
Ġdepreciation
oped
immer
Ġgarnered
ĠLip
ĠTob
Ġcreatures
ooter
Ġconsortium
obi
ĠMonster
arks
turn
Ġsketch
Ġpredicting
Ġminimize
ĠEthan
anson
ĠAdjusted
ĠHornets
ĠNZ
ĠKathleen
ĠKier
ĠMercury
Ġghost
Ġhaw
ĠDemand
ĠCollection
ĠFortune
Ġcruel
Ġfurious
ĠKun
ĠSalem
Ġunsuccessful
ĠLomb
ĠFury
ahi
Ġenthusiastic
Ġsurgeries
ACE
Ġroller
ĠStamford
Being
Dec
check
Ġaffection
Ġgifted
Ġenerg
Ġvarying
ĠCharl
Ġsolved
ĠNV
Ġlaptops
Ġkindness
mart
ĠPenny
Ġ116
ĠFeder
ĠCisco
Ġeducators
Ġminim
Ġgangs
Ġfestivities
ĠOriginal
yre
rying
Ġtighter
ĠMalta
Ġshield
interest
Ġbuoy
Ġsupplement
ĠSof
Ġok
Ġprosecuted
Ġinterventions
Ġseize
Ġcaravan
ĠCarlson
ĠEnterprises
ĠChristina
ĠWellington
Ġaltered
TP
Ġexpresses
Ġcomfortably
Ġstaffing
afa
itu
saving
Ġinflammation
hatt
ĠMiranda
icious
Ġgrabbing
ĠANY
Ġobjections
Ġdot
cle
Ġrelates
Ġtribe
Ġboarding
ĠEpisode
ĠEnjoy
arding
Ġathletics
Ġflies
Ġmortgages
ruct
Ġink
ĠKC
ĠSecondary
Ġfer
ĠQaeda
OA
Frank
track
ĠChandler
Ġenv
ĠLeaders
ĠKemp
Ġunsafe
sponsored
San
ĠUsers
PE
ĠAccount
otta
ĠMix
ĠCindy
En
Ġ175
Ġoverlooked
Ġpublications
Ġrewarding
Ġexplicit
Ġnotch
Ġspecifics
Ġdesignation
ĠAppeal
Ġcontingent
Ġcage
ĠKol
ĠJohns
ĠReach
ĠTin
ĠAfricans
Ġprec
ĠRural
ĠDw
Ġuphold
Ġsuffers
Ġweed
inst
Ġcancellation
ĠShaun
Ġleve
Ġdivisive
Ġhel
Ġfatigue
ĠSchwartz
ĠKirst
Ġarise
Ġgrandson
ĠLawson
Ġcollaborate
Ġparticipant
ĠBryce
Ġinfield
mid
Ġut
Ġnotices
Ġsneak
ĠPAR
Chris
Ġutilize
ĠByron
ĠZhang
PF
Ġoverwhelmingly
Ġvegetable
Ġabsurd
ĠChem
etime
Ġenvoy
Ġlover
length
Ġrevolutionary
ĠYam
Ġshutting
mt
super
ĠToby
ĠCoca
Ġproposition
Ġembracing
Ġversatile
ĠWalking
Ġillicit
Ġnude
Ġunpredictable
take
Ġgotta
ĠXiaomi
Ġinstit
ĠPep
ĠPearson
Ġrejection
stead
Ġmut
Ġoutspoken
ĠBaghdad
ĠFly
Ġwholly
ĠRM
ĠFa
Ġcleaner
frey
ĠHab
ĠLiber
Ġwhereabouts
Ġchefs
Ġalumni
Ġstopp
dd
forward
rast
ĠNash
ĠCort
Ġpotent
Ġmold
Ġdistinctive
chip
ĠBrunswick
Ġpopulist
Ġplagued
eka
ĠIOC
ugs
ĠDob
Ġmagn
asser
hew
Ġcapturing
oos
Ġcrystal
Ġalarming
Ġ135
iating
Ġnap
umar
ĠExpl
Ġupgrading
Ġdecl
Ġoverturn
ARK
linked
ĠContinued
Ġslumped
ĠGaga
iful
ĠPosted
ĠRecommended
Ġsnake
Ġexplosives
Ġhind
Ġcontempt
Ġmock
NBA
Ġstall
Ġorganisers
Ġingredient
Ġblockbuster
ĠStream
ĠLeah
Pic
Ġventures
oman
Ġweakening
Ġmaximize
Ġdigging
uez
Ġdistinction
ĠMali
Ġcontaminated
Ġhij
Ġcrafts
Fl
Ġcloset
ĠRapp
Ġtowers
Ġamenities
Ġopioids
Ġcontend
load
ĠJol
ĠBooks
Ġsim
Ġthrilling
Ġmeter
ĠMultiple
Ġarbitration
Ġcracked
Pl
Ġphotographers
Te
ĠSidd
Ġexplored
170
Ġpleasant
ĠCapitals
ĠRi
ĠRandall
overed
Ġchar
ĠEverybody
ĠPolitics
Ġmoisture
Ġthriving
ĠScotia
arded
imb
ĠFantasy
Ġcemetery
ĠPath
eur
ĠSec
ĠPlatform
Ġdeparted
ĠVIDEO
ĠPant
ĠSyn
Ġ230
bleacher
live
Ġprob
Ġgymn
Ġjudged
orns
Ġstemming
umbling
ĠHew
ĠCheryl
Ġconsciousness
cos
ĠTate
CNN
Ġrecognizing
meg
Ġpant
ulk
MM
ĠPrescott
ĠMarcel
anas
Ġhappier
mag
ĠLov
Ġspreads
ĠSample
Ġpopped
HR
ĠMitt
Ġ00
Ġlabeled
Ġaspirations
?)
Ġloads
ĠBritt
hurst
ĠTeams
Ġextremists
ĠClement
lings
shirts
cheon
ĠDEL
ĠLocation
Ġpresentations
ĠFalcon
Ġtoddler
kl
Ġprone
Ġcommemor
ĠStanton
201
Ġranges
Ġfielder
Ġattends
rade
Ġproactive
Ġhostage
ĠGriffith
ockey
ĠAdding
ĠAFL
gas
istics
Ġsurgeon
Ġtsunami
2014
Ġconstraints
cu
Ġsurrendered
azed
ĠAirbnb
650
zed
Ġinjustice
dog
full
ĠHear
Ġsprawling
Ġhomeland
ĠSG
anced
Ġpools
ĠCE
Ġbeers
AE
ĠJac
Ġrecurring
Writing
Ġgenius
ĠFrost
Ġgrounded
Ġallege
lessness
Ġjumper
Ġvicious
Ġsecretly
Ġhacked
ĠAmsterdam
ibu
Ġ1971
ĠRosenstein
nick
arge
Ġladder
elled
Ġsatellites
Ġassassination
ĠDepot
built
Ġunrelated
maid
ĠDod
ĠVanderbilt
Ġboundary
ĠStafford
ĠBry
Ġtribunal
Ġoutings
Ġquantity
imming
ĠBlacks
Br
eri
uffed
Ġexplicitly
ĠBieber
AKING
Ġphotographed
ĠPolit
Ġpremature
hered
ĠVi
Ġmarsh
casters
ĠKra
Ġdried
Ġcafe
eting
Ġshaping
aram
orf
Ġrichest
Ġhurricanes
Ġcommands
Gl
anth
Ġstunt
Ġyearly
Ġdefeats
Ġconsultancy
call
Ġlag
adh
ĠPalestine
Ġcustomized
ĠScar
ĠWesley
ready
Ġpersist
Ġpacking
ono
Ġdischarged
Ġpouring
sburg
Ġreconsider
ĠMethod
enez
cill
Ġsecular
pers
Ġple
ELS
ĠMine
Ġpushes
Us
Ġframes
ĠNets
ĠSiem
ĠHitler
kill
Ġrented
Ġcharm
Ġpulls
ĠTide
Ġinsufficient
itted
Care
iera
Ġcouch
aders
ext
ĠCitizen
Ġlogical
ĠMeadows
ĠDenis
ĠDrivers
Ġrepublic
Ġadvising
Ġparamedics
insky
illard
encia
Ġkh
Ġrh
Ġfinalized
Ġreins
ĠFarrell
Ġsteer
Ġproxy
unes
ĠSoul
ĠCopper
ĠKenyan
amped
conference
sted
ĠLon
Ġreplay
ĠBle
Ġvibe
Ġportfolios
sea
Ġbeautifully
Ġairs
ĠRap
ĠKatrina
Ġberth
gold
ĠIsaiah
iques
elson
Ġrelentless
ĠHighland
ĠPhilippe
ĠFol
Ġenduring
enz
Ġaer
icing
ĠHTC
Ġdoping
ĠAlb
Ġsom
icia
Ġcoroner
Ġdamn
Ġ119
Ġwiped
ĠAuditor
hern
ĠJew
endra
osp
ĠRory
Ġshapes
ĠPablo
Ġforemost
ĠHos
ĠCunningham
145
ĠRecovery
!!!
western
Ġimaging
ĠRookie
ĠMTV
Ġunc
ĠSporting
Ġpatrons
ĠCoverage
ĠObservatory
Ġfishermen
ĠProvince
ĠAston
ĠOsh
ĠWeekend
Ġrecruits
Ġdensity
FM
ĠGorsuch
ĠErie
lining
Ġshowcased
ĠRubio
Ġchaotic
Ġattractions
Ġhug
ĠHerbert
ĠRespond
Ġhappily
Ġtor
ĠOTHER
runner
ĠShakespeare
Ġstretching
ĠJudy
wyn
ĠCafe
Ġgreens
ĠHend
Ġglam
iation
ĠKingston
Ġincremental
Live
ĠBraun
USS
reb
Ġimperative
Ġsympathy
Ġrefuge
Ġadministered
rance
ĠLiberia
Ġmobil
heads
Ġinevitably
ĠEugene
ĠBerkshire
ĠHarbour
ĠTrends
TB
Ġdeficits
Ġlistings
Ġreadings
Ġtumor
Ġoffic
opy
Ġdistracted
Ġappropriately
ĠWillis
Ġskirt
ĠTea
Ġshades
Ġbargaining
Ġretention
ĠConcert
ĠMeteor
ĠCustom
Ġinputs
ĠSah
enta
Love
ĠBurg
ĠCynthia
ĠMoses
ubb
Ġpeoples
dh
ĠFro
bean
Ġcigarette
tta
umm
Ġphenomenal
Ġyelling
Ġinaug
Ġconven
ĠGore
request
Ġcolonial
ĠAleppo
Ġdemolition
Ġamounted
Ġstaggering
Ġclips
Ġinconsistent
ĠMilton
ĠWireless
ĠReno
ĠPerkins
Ġunusually
Ġmemor
Ġhectares
Ġlat
central
ĠDig
ĠMarina
ĠPartner
daily
your
Reilly
Ġpope
phy
Ġassessing
ĠRodrigo
wi
Ġcompatible
imate
Ġgentle
ĠRhodes
Brexit
ieve
Ġbreaches
Ġchopped
Ġcancers
VEL
Ġsluggish
ĠUltra
ĠUl
Ġcrises
ONE
ĠEquipment
Ġcater
Ġadjourn
Ġreadily
ĠRolling
ĠBott
inel
ĠRule
Ġgrind
ĠHussain
ussie
Ġdepressed
ĠImperial
ongo
Ġuniforms
Ġ117
Ġchambers
ĠDum
ifi
ĠBetty
ĠTA
Ġpromotions
itary
Ġcried
Ġbranding
ĠBahamas
ĠDat
Ġantibiotics
ĠAus
Ġumbrella
Ġgradual
Ġaltercation
Ġlure
ĠJakarta
Ġunified
chin
ettes
ĠRwanda
ulations
Ġbrink
Ġbroadcasting
ĠArtist
Ġrecon
Ġaqu
ĠServ
999
ĠParticipants
ĠVentures
fight
Ġactivism
Ġstructured
Ġportal
Ġtendency
ĠAssociate
Ġcalf
ĠOrd
ĠTi
ĠFrancois
uary
ĠVik
urchase
Ġfried
Ġbooming
Ġparticles
amas
INA
Super
supp
urring
ĠWatts
affer
ĠDEC
Ġroadway
border
Ġsequ
entially
ieg
Ġcamping
Ġ750
Ġcycles
ĠReese
ĠFellow
isters
ĠVehicle
kies
ĠJonas
Ġfoundations
ĠNigel
Ġstab
Ġcongressman
ĠWichita
antes
Ġprogression
Ġditch
lik
Ġsid
Ġele
ĠMund
Ġstairs
lete
Ġlingering
Ġsadly
Ġay
Em
Ġdeadliest
soon
Ġtangible
Ġabusing
Ġcomprises
vil
ĠBun
Ġdoubling
Ġcommun
Ġslogan
Ġloading
Ġshallow
Ġattributes
Che
Ġcheering
Ġrefuses
cam
bes
hon
ĠSpartans
cept
ĠComputer
ĠCanberra
ĠWARNING
Ġstuffed
block
ĠJennings
ĠAU
atin
Ġom
Ġbachelor
Ġprediction
ĠWinner
agne
Ġrob
ĠKatherine
Ġli
ĠHumph
ĠPEOPLE
IRO
Cola
Ġguitarist
isen
ĠHighlights
Ġwelcomes
Ġprisoner
Ġpsychology
Ġextradition
Ġrou
ĠLund
Ġthoughtful
RY
orman
Alex
Ġlaughter
Ġfumble
Ġsynthetic
Ġdigit
ĠRoc
ĠFactory
ellery
ishment
ilar
ĠEarl
ĠSutton
ĠJur
ĠAllan
ĠKoreans
uki
Ġculinary
PU
Stock
stars
ĠDayton
beck
Ġinstability
ĠBring
Ġbreeding
Ġmiracle
bons
Ġdonating
ĠKick
ĠSag
afi
Ġharassed
asm
Their
inity
Ġacademics
Ġstatute
ĠAmit
Ġpressured
east
"),
iso
220
Ġairplane
ĠMcCabe
ctions
ĠMesa
Ġsensational
ĠFE
ĠNeigh
Ġbribery
Ġflaws
Ġfemales
Ġmisses
ĠColor
ĠVietnamese
ĠMental
Unfortunately
ĠPont
Ġ1940
dry
ĠGazette
ĠAns
Ġwhistle
Ġsymbolic
Ġpossessions
ĠDriver
Ġbracket
ĠReign
oji
Ġoct
Ġtube
ĠFelix
Ġtranslated
Ġpromptly
ĠErnest
arth
Ġdumb
Ġinfluences
taking
Ġprivat
erers
Ġmalware
Ġpredictable
Ġtighten
Ġheights
Ġfairness
facing
Ġrematch
Ġpoet
Ġfundamentally
Ġcoveted
Ġlivelihood
ĠABOUT
Ġsourced
Ġdeferred
Ġslashed
ĠSchultz
Ġtriggering
ĠShiv
Ġlithium
ahead
Ġleisure
Ġbackpack
ilateral
ĠNuclear
ĠLeone
ĠNice
Ġenthusiasts
September
Ġenroll
ĠWear
erey
angs
such
Ġunpopular
Ġdisciplined
Ġshrinking
ĠBrewing
ĠReally
Ġdirective
175
Ġnotifications
Ġfortunes
ĠHour
ĠGan
ĠChurchill
ĠDodge
ĠJeep
Ġsour
Ġderived
Ġft
riv
Ġlaundry
Ġfentanyl
ĠSioux
achi
workers
Ġworkload
rooms
ĠQU
ĠTruth
Ġdefenses
Ġdunk
Ĳ
Ġderby
ĠMotion
ĠMayo
ĠIke
Ġpreferences
Ġped
elman
moon
Ġshoots
ĠNoel
Ġmilit
ĠCambodia
ĠMLA
Ġhonoured
fast
Ġalgorithms
Ġstormed
NT
Benz
Ġvaccines
Ġmarching
Ġ118
ĠWilmington
GM
coin
Ġunderwater
ĠClearly
Ġorgans
mir
Ġdenounced
pless
imal
ĠKom
Ġfatalities
Ġyoungster
Ġthirty
Ġinternally
222
Ġdemonstrating
Ġbusiest
Ġperpetrators
Ġstun
Both
ĠMcCoy
gn
ĠDalton
ĠDAY
Ġsacred
Ġconsuming
Ġ(+
ĠPioneer
ĠApplications
ĠBolt
ĠBarkley
ĠExpo
ĠLore
ĠPrivacy
ĠHarley
Ġtractor
Ġtenth
ĠHaiti
ÃŃn
ĠTVs
ĠCathedral
Ġunite
Ġbinding
oks
ĠJenny
Ġcaller
ĠIngram
ĠPrairie
Ġrunoff
Ġasserted
icit
ĠSie
102
ĠMB
Ġobstruction
Ġgroom
Ġtolerate
Ġcans
forth
Ġvillain
Ġdefining
ĠFrenchman
otte
Ġcontr
clock
onder
Ġprolific
ĠElectronic
ĠSak
annie
ASS
Ġmultinational
Associated
IZ
ĠBelle
Ġmand
asis
Mac
Ġpretend
ĠCommunication
Ġheartbreaking
ĠShepherd
ĠBIG
mph
ĠShield
ĠLiv
ĠStatus
Ġbikini
Ġranch
Ġpeacefully
ITCH
bourne
ĠVariety
Ġstationed
Ġhed
Ġexhausted
Ġsurpassed
Ġcatalyst
Ġsmuggling
uating
Ġ123
Ġdup
ĠSul
conf
jit
Ġmaiden
asta
ĠCalvin
borne
Ġgrim
Ġtort
cott
olas
NR
Ġbreakout
ĠHun
ĠGuatemala
Ġhistorian
ĠLawyers
ĠDisplay
Ġobstruct
ĠOsborne
Ġtherapies
ĠAub
Ġinjunction
stroke
Ġseafood
Ġhazardous
ĠWolver
ĠViolence
ĠBillion
ĠLetter
ĠWorldwide
Real
Ġexpires
Ġflawed
European
Ġrigorous
ĠSimilar
ĠSurface
ĠEF
mys
ĠFunds
ographer
Ġtribes
Ġspouse
Ġunsure
aways
Ġtrainers
arie
ĠZar
ĠComedy
ĠLit
ĠNoon
Ġgallon
Ġconsulate
ĠBras
iology
onies
ĠBelichick
ĠRoot
ĠLux
ĠSed
ĠTos
Ġinherited
tw
Ġdeaf
Ġdriveway
jah
ĠScientific
ĠNottingham
both
awan
Ġnut
ĠLebanese
ĠAAA
ĠSuzuki
ĠBU
ells
Ġspecify
ĠNotes
Ġvoluntarily
ĠMolly
Ġoutskirts
Ġbehaviors
Ġmilitia
Ġsplash
Ġpersonalized
ĠFiat
ĠKind
ĠTruck
py
ĠWIN
dist
itational
APP
ĠPelicans
ĠGam
mel
Ġmandated
Ġbalances
ĠWizards
iary
ĠAvailable
Ġkay
jin
eyed
Ġsterling
Ġconcealed
ĠFedEx
ĠPO
ĠJacqu
anted
eme
ĠDefensive
manship
Ġreliever
Ġshortstop
Ġphot
ĠGain
ĠConcern
due
Ġalgorithm
fell
ĠMountains
icians
Ġhonoring
Ġuploaded
Ġtore
GH
orde
ĠCoin
ĠAven
Ġliterary
Before
Ġtactic
Ġsocially
ĠSik
Ġthermal
Ġhor
price
Ġrooted
arrow
Ġcirculating
Ġlaughs
ĠLines
lig
Ġjudgement
....
Ġsewer
Ġdancer
ĠPens
Ġsig
ische
wives
Ġgran
ĠBron
ĠHyde
yards
Ġcandidacy
Ġhey
Ġcontributors
ĠUpdated
Ġ190
Ġhalls
Ġemphas
ĠCherry
Ġrim
Ġbilled
Ġbaked
ĠPopular
lb
Ġgravity
Under
Ġreservation
organ
ĠPict
ĠWhitney
Ġonboard
NEY
ĠBreaking
Ġflagged
rar
ĠBasic
ĠDomestic
ĠPent
Ġvigilant
Ġzoning
Fire
Ġcorrected
isbury
ĠLaure
ĠDevon
print
ĠTopics
ĠFuel
Ġcirculation
ĠPratt
Ġskiing
Ġtornado
dep
ĠUnless
ifting
Ġfool
should
Ġinspectors
Ġprotested
Ġba
ussia
Ġspun
grass
phone
Ġpotato
ĠBehind
cil
Ġconcession
Ġapplause
ĠChin
Ġceremonies
pit
Ġtraumatic
Ġbasics
Ġparameters
ĠMoz
ĠAIDS
Ph
Ġjudging
Ġlecture
Ġmunicipality
Ġcardiac
ogan
pir
could
Channel
Ġshattered
ĠAV
continental
chie
ibi
ĠOy
Mon
ĠCN
WC
Ġdistributor
ĠSavannah
Ġcleaned
ĠFlores
Ġembarrassed
Ġclay
Ġvolcano
Ġstressful
Ġsummoned
ĠSeg
Ġstatistical
ĠShak
Ġadequately
worthy
fighting
alan
Ġnecessity
Ġresidency
Ġsober
arius
ĠTaj
mount
wards
Ġaesthetic
Coin
ĠDew
were
SK
Ġpowerhouse
Ġcleanup
ĠWITH
ĠHers
ĠRao
ĠFlyers
Ġdominating
issued
ĠMcGr
Ġinsurgency
Ġburial
ĠPlains
ensive
ĠPresent
Mo
Ġnerves
Ġsmoothly
staff
Ġrestoring
ĠGeneration
Ġcommuters
ĠLegend
ĠGad
lied
Ġissuer
ĠDozens
Ġphases
ĠWu
ĠTunisia
ĠPacers
Ġdur
ĠIG
annon
sided
Ġvo
ĠNI
Ġvitamin
Ġsoc
Ġimmunity
Ġgenerates
ĠMcGu
Ġexplores
Ġassistants
Ġstems
ushed
ĠZak
ĠOwners
Ġvariant
ardy
ĠNewark
ĠCatalonia
Ġautonomy
Ġgreet
Ġawait
ĠLuckily
ĠTicket
ĠSTOR
asy
Ġincorrect
Ġconsisting
Ġperspectives
ĠQuint
Ġtotaling
Ġnortheastern
Ġcharacterized
Ġsurfaces
nation
Ġprevents
ĠSho
Ġelectorate
Ġshortfall
chy
aws
ĠAddress
Ġdefensively
quel
chester
Ġterr
ahu
lined
ĠNev
unn
Def
pc
ĠSig
Ġnonetheless
ĠSundays
ĠBAS
Ġpolicemen
ĠGoal
apa
Ġrope
Ġoutage
ĠPaso
Ġsadness
ĠGrowing
ĠKyr
Ġale
ĠBreitbart
ĠVia
ĠBrig
idence
Ġ145
quire
Ġdistraction
ĠOdd
ĠSimply
ĠNin
Ġcompetent
ded
iper
ĠKaty
ĠSolomon
Ġfeeds
ĠMort
ĠRica
affe
Ġcooperating
Ġarrivals
Ġdelete
ĠAth
Ġtrustees
Ġtub
Ġsaga
otes
ĠCJ
Ġexited
stakes
Ġinflu
2000
ĠDonovan
ĠNur
Ġoutline
Ġaudition
oked
ĠJag
money
Ġcardiovascular
song
ĠOften
ĠGoff
ĠOaks
Will
acon
Ġ?
Har
ĠLambert
atoon
ĠAF
ĠMavericks
nia
ĠChennai
"},"
Ġpairing
mad
ause
ĠRide
111
ĠFallon
ĠHyder
ĠPiper
Ġfilmmakers
icon
ĠBeau
Ġbutt
lot
Ġrifles
Ġsunglasses
ĠTRA
Ġmagnetic
arty
ĠYo
ĠWeight
?!
ether
Ġaspir
Ġhunters
Ġcontamination
Ben
political
],"
ĠBever
Ġmonuments
won
auc
Ġexpressions
Ġlakes
iao
abin
Ġpleading
Ġdiscounted
Ġdisappoint
ĠTW
craft
Ġsocieties
ĠAugusta
Ġbott
Ġmarker
ĠWrestling
CBC
athy
ĠAZ
Ġfabulous
valued
Ġoptical
Ġshaken
OSS
ĠImp
ĠAUD
inals
Ġrevital
Ġcontroller
Ġgrasp
uling
ĠFrederick
ague
bull
ĠLadies
Ġdisruptive
Ġbenefiting
Ġverge
ĠDak
Ġgrabs
ĠPAC
GN
ĠMcMahon
rob
ĠEspecially
ĠChrome
ĠBundesliga
104
Ġliberty
ĠSF
Ġvarieties
East
Ġgrowers
Ġsocialist
Ġunemployed
AMI
Ġtotals
ĠGib
Ġdefect
ĠOrtiz
ĠPerfect
Ġpraying
ISS
Ġul
Ġthrust
osc
ĠOtherwise
Ġobsessed
Ġ650
ĠWebsite
Ġspectators
ĠScout
ĠBoone
ĠDillon
Ġabortions
lect
utz
Ġvillagers
Ġaccelerating
Ġslap
Ġvague
Ġjurisdictions
League
ĠUruguay
Ġobstacle
Ġmanufactures
Ġcampaigned
ĠAdvance
ĠNort
emer
Ġ1964
Ġirre
Ġprog
ĠFeatured
Ġcommute
Ġhandset
akis
ĠArs
tail
iker
Ġcrafted
Ġupl
ĠMarcos
Looking
Ġseated
ĠBoat
Ġreadiness
ĠLLP
otechnology
facebook
ĠScouts
ĠEar
ĠAdv
ĠDemocracy
NI
oci
ĠSnapdragon
Saturday
ĠPra
ĠCoastal
ĠVoters
ĠLeigh
ohn
orry
Ġtechnicians
armed
Ġshrink
Ġspinning
agram
320
liner
ĠContest
ĠCountries
Ġfarewell
ĠCW
aris
Ġstorytelling
Ġpasser
Ġsailing
control
Ġdissent
ĠRih
Ġedit
Ġspoilers
itched
ĠBentley
Ġcant
mn
ĠMacy
Ġindefinitely
Ġvill
Ġmeth
ĠEL
Ġoptional
Ġremark
ĠVanessa
Ã£
Ġmasks
ĠProvincial
Ġculprit
ĠTol
Ġsnack
ĠInfinity
ĠPub
Ġbrakes
Ġclar
Ġinception
love
Ġwonders
Ġforged
ĠCEOs
Ġspecifications
irst
ension
ĠMarin
det
Ġordeal
ĠFeed
December
Ġstrokes
fect
orial
Ġshowcasing
Ġstack
UAL
ĠAlexandra
Ġpoison
ĠFry
ĠCars
Ġprototype
ĠUSDA
ĠIF
flows
Ġtailored
ĠGear
Ġmyth
Ġplatinum
seven
founded
encing
ĠTip
ĠMald
Ġgeopolitical
112
Ġenqu
ĠNR
ĠNadu
leen
ĠTat
Ġcolon
ĠSize
Ġvis
Ġbere
ĠAnnie
ĠWatkins
Ġpumping
cur
ĠBates
Ġslug
miss
Ġforecasting
source
Ġacknowledges
Ġprosecute
Ġtestament
Ġcum
ems
Ġsocks
ĠSame
Ġcompetitiveness
Ġdefinitive
Ġintensified
Ġsatisfying
Ġphysics
ĠHarden
Ġsubsidy
Men
ĠPaddock
Ġworkouts
ĠSaw
Ġcrisp
ĠBezos
ĠVote
Ġguiding
anged
Ġstaple
ŀ
ules
ĠAvengers
Ġoptim
ĠBuffett
Ġtimetable
oust
HE
ĠGrab
Have
cca
Ġwaived
Ġretaining
Ġaber
Ġoffline
Ġvigil
books
ĠRein
Ġacknowledging
ĠDoyle
Ġproteins
Ġmixing
ĠAlcohol
ĠJD
Ġsyn
Ġthieves
Ġhomemade
Ġfeminist
ĠRoosevelt
ĠCoal
Ġwishing
ĠSIGN
ĠLad
Ġempathy
ĠBrooke
ĠMash
inations
''
ulators
Ġdrastically
Ġfloral
ĠGuild
Ġundercover
ĠLaboratory
ĠRank
Ġrestraining
Ġparagraph
Ġpersona
ĠEmployment
ogs
ĠGw
ĠMedal
Ġwildly
fare
ĠCNBC
photo
Ġtransforming
Ġtermination
still
INT
Ġbal
ĠEconom
ĠLarson
Ġheck
Ġquantitative
Ġemergence
esta
Ġknot
Ġwhale
ĠðŁĺ
Ġperimeter
Ġempowerment
Ġmg
Ġrents
Ġrefreshing
Ġleasing
Ġpatents
andi
Ġfathers
Ġunse
Ġprocessors
Down
Ġreversal
veh
andal
ĠKov
Blue
Ġspecializes
Link
ĠConsidering
ĠEdmund
Ġneo
agger
rg
Ġseverity
Ġcour
RL
ĠTeresa
Ġgallons
Ġacquitted
Ġaccompl
Ġcracks
Ġsciences
Club
Ġpredicts
ĠVu
Ġhints
ĠZack
Ġrefurb
Ġdestabil
ĠSamar
ĠInfo
fs
Ġratios
Ġinherent
ĠContinental
Ġtreasure
Ġcaucus
Ġenact
orporated
ineries
Ġtastes
main
Ġsq
ickson
corruption
ulture
ĠGoodman
ĠLing
ĠSup
Ġexposing
immers
Ġresponds
heimer
Air
ĠFigures
Ġlongstanding
ĠAnalytics
Ġenforced
Ġnickname
Ġclinch
ĠCarpenter
ĠPharma
Ġconstructive
Ġgel
ĠSham
ĠTOP
ĠDerrick
Ã¶r
birds
ĠTong
ĠBatman
ĠRouhani
ĠOlive
ĠRiv
Ġdessert
Ġguides
Ġsag
Ġchemotherapy
Ġslept
ĠFranc
ĠDunk
writers
ĠÃĹ
Ġ401
Ġoutfielder
ĠHamburg
izu
Ġscr
Ġcomparisons
Ġwhites
Ġtraits
Ġcollateral
LEY
ideshow
Ġstatutory
Ġruin
Ġsituated
tem
Ġinject
rage
550
Ġfactions
ĠNaomi
cutting
Ġcommunicating
Ġrailroad
Ġsparking
Ġrespiratory
ĠWebster
ĠCarbon
Ġundertaking
Ġcomposer
ĠFigure
Ġspecified
Video
uber
Ġsexuality
lected
ĠBurger
ĠCards
SR
ĠLie
Ġrecount
Ġexceeding
Ġquoting
ĠJama
ĠVictorian
Ġsway
ĠGes
ĠSI
ĠKazakhstan
Ġaccusation
etr
Ah
Ġproc
Ġlamb
ĠMorales
ĠLily
Ġderail
Ġcontributes
iddle
ĠConcord
Ġelectr
Ġequip
Ġquantum
Ġthereafter
Ġarrange
Ġraided
ĠMove
ĠSang
ĠGaming
Ġbiology
ĠAmnesty
Ġdemise
ĠBarton
Ġqualifier
ANI
Ġundersc
Ġroyalty
ĠINC
Ġsne
ariat
ĠWan
Ġcluster
quin
Ġwhales
ĠFear
ĠBrew
Ġdeport
airs
Ġcensus
OUS
Ġrespectful
bone
Ġwaivers
friend
Ġsystemic
ĠDion
James
ĠAdmission
Ġstigma
ĠTIME
Ġunderpin
ĠWitnesses
Ġdigs
Ġgenocide
Ġstaging
rolled
Ġspecially
oop
Ġbaseline
ĠRF
avis
Ġvocals
COL
LD
Ġimpending
ĠCaldwell
Ġaluminium
Ġstra
ĠTayyip
Ġadmissions
falls
Ġrealizing
oen
ĠRV
ĠMog
Ġadvocating
ĠPepper
lived
ĠWick
Facebook
ĠSpect
Ġshout
Ġfractured
vet
Ġ1966
Ġcompensate
ĠVolume
Ġcategor
ĠHuntington
Free
OUGH
local
Sch
uti
Ġburger
Ġbush
Ġimpacting
Ġfrost
tti
ĠFresno
onz
shaw
ĠLibyan
Ġassert
ĠLegacy
ĠIE
ĠKinder
ĠHorizon
Ġtum
Ġsignaled
ĠFors
Ġspeedy
rang
ĠFT
Ġselecting
Ġpale
WD
Ġprobability
OUND
istrate
Ġsens
ocating
Ġinterpret
Ġpuzzle
Ġinland
Ġmanipulation
Sal
Ġfulfilling
ĠMcMaster
Make
jun
giving
ĠNiagara
Ġscholars
ALT
ĠSteam
omin
ĠSau
ĠDowning
Ġgy
ĠTit
ĠLav
ĠPepsi
Ġdumping
ĠDetect
ĠTDs
ĠKob
ĠSY
Ġpioneer
Ġ_
Ġclarified
ĠTests
opic
ĠMN
ĠBowman
umin
Ġwidow
Ġrallying
ĠPull
Ġprojection
Ġescalation
Ġlibraries
ĠFounder
ĠHugo
ĠStyle
Ġfreelance
Ġlisteners
Ġdiscovering
ĠPlans
Ġfranchises
ĠPam
Ġfarther
UI
opers
103
ublished
keys
aky
Ġinnov
¦
ĠDrum
Ġwraps
ĠCongressman
ĠVenus
fake
ĠBronx
ĠDinner
faced
Ġbackward
inge
Ġarsenal
ĠAce
uden
fre
Ġspa
ĠSaunders
ĠMatter
ĠSpons
Ġconsultations
ĠRuss
Ġsculpture
Ġuncommon
Nov
pg
otherapy
Ġgol
ĠBlazers
Ġadvises
ĠRegulatory
ĠBoyle
Äģ
Ġcuisine
Ġencouragement
yp
eny
ĠOrchestra
ĠChicken
Ġ1965
ĠPret
ĠCooperation
ĠDevices
ĠRodney
ĠHonduras
ĠEgg
Ġchurn
Ġclutch
ĠBernstein
Ġain
Ġformidable
ĠFacility
Ġpag
mons
bol
Ġliteracy
Ġsubmissions
ĠHulu
ĠConstitutional
ĠIsh
ĠPaula
olve
Ġabundance
ĠAla
ĠEcuador
Ġreconstruction
Ġcrush
reek
ĠÂŃ
ibo
Ġpracticed
Ġpac
rett
Ġpasta
Ġresp
ĠFlag
pal
Ġcommenting
Ġrecap
âĢĶâĢĶ
ĠToy
ĠMeredith
Ġreceipt
Ġseparating
ĠMap
Ġmogul
ĠBurlington
Ġger
Ġcoordinate
grad
Ġescalated
Ġproceeded
turned
Ġupt
hum
ĠWere
Whether
Ġenjoyable
energy
Ġprohibit
Ġhurdle
Ġdivorced
Ġcommentator
GT
ATH
Ġtravellers
Ġpopulated
ĠVo
ĠRebels
Ġspurred
Ġideological
Ġelephant
keyes
Pat
Ġlinger
Ġreps
Ġcocktails
ĠKristen
istically
Ġgunmen
Ġ1920
Ġquart
National
Ġexceptions
kat
priced
ĠHarold
ĠPistons
Ġcompounds
Ġmouse
Ġexhibits
ĠBurk
Ġclassmates
Ġcirculated
Ġattributable
ĠBaton
Ġorganizer
Ġdurable
Ġsingers
ĠOman
Ġhydrogen
Ġslash
Ġaccidental
ĠAbrams
KS
itty
Ġrust
Ġselections
porting
ĠEmanuel
XX
ĠThornton
Ġcolumns
Ġsentiments
fun
Ġplight
ĠSister
ĠMaggie
hya
Daniel
Ġplung
orio
ĠYorker
ĠSaturdays
Ġloc
aye
illon
ĠConsulting
pled
ĠZin
ĠFarms
ĠGiuliani
ĠMIN
ĠHanson
ĠComplete
ourke
oche
ĠJord
Ġprofessors
ĠWILL
ĠCron
Ġdorm
Ġcracking
tur
ORS
Ant
Ġdeduction
ĠSIM
igue
ĠValent
ĠEthereum
ĠSunny
ĠExtra
ivan
ĠFo
Ġleases
ibe
Ġ1800
Ġslapped
emaker
Ġfa
rien
ĠPeriod
ĠES
ĠBlu
Ġpreserving
Ġsmarter
mans
Ġgest
zu
nu
Ġdivest
roc
ĠFlood
Given
ĠNorton
Ġgranting
Ġdealings
Ġgeographic
esa
Ġcub
Ġcriticizing
ĠCub
Ġsurroundings
ĠInternal
Ġsle
Ġcrushing
ĠPP
izations
ĠAbdel
Joe
ĠVisitors
ĠCarly
INGTON
ĠGC
ĠWB
Ġgently
·
though
ĠAlto
Ġresting
ĠPerson
ĠTon
Ġbore
ĠClar
Ġmot
Ġbathrooms
ĠTypically
Ġdisconnect
Ġtightly
ĠHarvest
ĠHed
ĠGermans
atar
Ġkeynote
Ġimproper
fil
Ġintens
iev
Ġmedi
Ġtenant
Ġfootsteps
uli
Ġlegalization
106
ĠLexington
folio
ĠÂ½
ĠRita
Ġbattered
inka
ĠJavaScript
ĠMusical
ĠTalent
Ġlounge
Ġintimidation
ikh
ĠFam
Ġtherapeutic
Ġbalancing
Ġrocky
liners
ĠPredators
Ġregistering
Ġdiligence
ĠRover
ĠDot
Ġterminated
ĠEdu
Ġcharming
ĠPLAY
ĠFact
ĠCi
)."
ĠWrestle
hun
Ġopenings
Ġfou
Ġ126
spe
ĠAW
Ġbud
ĠTemper
ĠOrthodox
Ġprogressed
tre
Ġtasting
Ġscrutin
ĠLima
Ġlayout
Ġlitter
ijk
ĠParkinson
ĠAnfield
Ġdevelopmental
Ġheaven
ĠWoodward
index
Ġpistol
Ġreson
ĠWS
Ġemb
ĠLap
ĠPle
lington
ĠSit
Ġabruptly
ĠSenegal
ĠYates
aceutical
ĠJak
ĠHastings
iste
ĠDB
ĠAgent
Ġpreservation
ĠLank
ĠSuffolk
Ġboo
essed
Ġempowering
enne
Ġrecycled
Ġstrateg
Ġbrake
135
ĠStef
ĠFlake
ĠGregg
ĠRent
Ġinstallment
FW
ĠCran
obo
ml
ĠJade
Ġaccuses
ĠNvidia
Ġburg
High
Ġbothered
ĠBenn
Ġinterrupted
Ġtrek
Ġserv
Ġpatron
Ġdictator
owa
jad
ĠTulsa
Ġboil
Ġdisplaying
Ġcinem
awaited
¸
Ġreacts
ĠDee
ĠGron
igation
Ġservic
capt
Ġinsane
ĠVeteran
umen
End
ĠCream
Ġextremism
ĠMalone
Col
Ġsafeguard
Ġtomatoes
die
Ġchamp
zero
ĠPRES
Ġchoir
Ġpediatric
Ġprivileged
Ġdownstream
Business
ĠFighting
atable
Ġsums
Ġinsult
arten
ĠWikiLeaks
Ġpads
Ġretali
ĠHunts
Ġindie
ĠShields
ĠMortgage
oses
ampton
ĠVideos
ĠPER
itionally
ĠKimmel
sum
trade
acity
marked
ĠAngus
Ġtemper
Ġseizure
Ġfictional
utton
eva
Rs
Ġintra
ĠRequest
ppe
ĠeBay
ĠUSS
Ġ1500
Ġpossessing
Ġbacon
ĠSexual
ĠBuff
Ġslaughter
Ġjur
zhou
suit
ĠCha
ĠBuk
crime
ĠEasy
ĠChain
aq
ĠPall
flation
225
oup
109
ĠMcKenzie
Ġclearer
ĠDogs
oration
Ġsubs
Follow
ĠShirley
Ġadjusting
ĠEFF
Ġflipped
Ġconform
ĠLaurent
Ġcircular
ĠNOR
Ġmort
Ġtexture
avour
Ġflex
ĠHedge
ðŁĺ
Ġtrophies
ĠINV
Ġboast
ĠTyr
ĠNichols
ĠSpa
Ġcheered
Ġprey
reach
Ġbreached
ĠRegions
ĠLyft
ĠTul
ĠKore
Ġendure
ĠCover
").
ĠSavage
Ã¨re
reens
Ġnic
sector
Ġweaknesses
Ġreboot
Ġ210
Ġimagery
ĠFrem
Ġclue
ĠLars
Ġfaction
hetic
Ġallied
ĠMarvin
Ġmethodology
ĠTN
Ġutter
Ġ270
ĠVolvo
oline
ĠACLU
Ġindirect
Ġminer
ĠBale
ĠStrange
ĠFuller
Ġexpelled
ĠTropical
Ġremotely
ĠTIM
Ġinnocence
Ġconfined
Ġfares
Ġprevalent
Ġdesp
House
azar
Ġgestures
ĠCES
ĠDM
eal
ĠÐ
Ġburnt
Ġframed
ĠDani
Ġhol
ĠCannes
ĠHayden
Ġwardrobe
ĠAssange
ĠSamp
bay
sky
ĠHence
ĠGrizzlies
rates
laws
ĠMandela
ĠHoover
rics
charged
Ġexclude
Ġpassive
Ġcontinuation
Ġblunt
Ġvac
ĠEmerging
rench
tv
ĠHollow
ĠOC
Ġadvisors
Ġrendered
ĠBernardino
ĠSupporters
ronic
Ġchancellor
Ġ1963
Ġuranium
Ġak
ĠOptions
ermott
ĠBerger
ibia
Ġexplosions
Ġimpairment
Ġhail
Ġalley
Ġcruelty
ĠClarence
Ġvariations
Ġrealm
Ġrenovations
ĠNorwich
Ġbelongings
Ġmerchants
ĠMinisters
ĠDodd
Ġviewer
Ġneutrality
quer
ĠPrinceton
dead
arest
GET
ĠCanadiens
ĠIgn
clear
Mal
ĠBridges
ĠHayward
Ġremarked
ingle
Ġsob
Ġdepart
beans
Ġpreserved
ĠFairfax
Ġforgot
ĠBeh
Rob
Ġcooperative
ullah
Ġmates
Ġrang
Ġthigh
Ġabducted
Ġchaired
ĠHearts
Ġidentifies
ĠBuckingham
ijn
ĠJab
Ġclashed
feed
sites
ĠCareer
exp
ĠBuccaneers
scape
Ġupdating
Ġintentional
ĠGuam
ĠBreakfast
ĠHag
Media
Ġtapping
Ġpics
Ġeaten
Ġpremise
Kim
ĠStorage
Ġextensively
Ġoutrageous
ĠSadly
Global
Â¢
leaning
CM
Ġeasiest
ument
Ġ122
Ġdaunting
ISE
Ġsunset
Ġreset
Ġbent
Trust
ĠCaleb
ĠRut
ĠBast
ETS
iencies
Ġpu
ature
Ġrealities
omi
Ġsoda
Ġunveil
ĠGoldberg
opes
Ġuprising
ĠMR
Ġendorse
Ġsail
Ġconverting
Ġglamorous
ĠHollande
108
isky
Ġcushion
240
Ġadventures
Ġantitrust
ĠStockholm
pace
ĠVald
ĠTransfer
ERT
ĠMcInt
Ġsurging
ogn
Ġlauded
ĠZam
ĠRough
TOR
Ġwed
Ġorigins
ĠEld
oso
Ġsupplying
ĠPetty
ĠTwe
ĠDenise
ĠBec
Ġbehave
Ġ121
estone
ĠBoulder
ĠBlackhawks
ĠWyatt
Ġfiguring
ĠDeborah
agi
significant
Ġasthma
Ġmessy
mpire
Ġax
Ġaspiring
ĠNH
ĠGina
heavy
ĠVick
ÃŃs
something
Ġbodily
Ġunauthorized
ĠActually
ĠOH
Ġmicrophone
allah
Ġrampant
Ġrelocated
Ġwidening
ĠCait
nel
ĠBlackBerry
Ġprofessionally
ĠInterestingly
Ġbarbecue
Ġresisting
ĠNunes
disc
Ġgroundbreaking
orable
ĠRegulation
Ġborrowed
Ġleaking
Ġlengths
Ġunveiling
houses
Ġ155
ĠBillboard
icion
Times
ĠZoe
ĠAbby
bus
ĠMinutes
ributed
Ġparap
Ġfertil
ABC
ĠIsle
Ġtherapist
Ġgubernatorial
ĠAust
ĠLoan
Bo
ĠNRL
rag
Clear
Ġrevision
Ġflesh
BD
iji
Ġproductions
Ġcoconut
ĠMcCorm
ĠDash
Ġgeography
hearted
Ġarson
Ġgoaltender
Ġbelly
Ġqualifications
ĠActiv
Ġhooked
ĠHungarian
Ġprotocols
inking
Ġfronts
ĠKuala
ĠToys
ĠFitness
Ġwarfare
Ġoutp
ĠQuestions
Ġwel
ĠShan
ĠMorton
ĠRomero
Ġglance
ĠTay
Ġsneakers
ĠSymphony
Ġinspect
enna
Nobody
Ġscrapped
ĠDeVos
ĠDominican
Ġplanets
anova
Ġnotify
Ġincurred
Ġunders
Ġdetainees
ĠMarriott
electric
ĠKes
union
ĠWatt
ATING
Ġslipping
Ġraft
Ġresisted
Ġcred
tern
Ġflurry
Line
Ġconsulted
Ġanalyzing
107
ĠWide
¶
human
ĠFEMA
Ġsmash
Ġcorps
Ġbarric
Ġcollar
ĠTB
without
ĠCanucks
Ġneedle
ĠSidney
ĠLauderdale
Ġglove
ilee
pic
Ġbenef
ĠHydro
ĠDisc
ĠArg
Ġtermin
Ġsympath
Ġpest
ĠCoff
Ġadvancement
social
pol
ĠEmails
Ġstacked
ibly
ĠAlbion
Ġfist
hero
ĠMarian
asia
Ġtownship
Ġslick
Ġmodeling
achers
ĠArgent
ĠSUN
arde
Ġpinned
Ġhitters
Ġdare
ictions
arily
Ġsting
Ġprimaries
appointed
Ġformats
Ġglitter
Ġpatches
Ġstrategically
Ġaka
Ġyielded
BY
Ġjeopard
ĠVand
Ġcrowned
Ġoccupants
Ġtanker
ĠVisa
Great
Ġseasoned
ĠAviv
Ġfiery
Ġderivatives
Ġdiverted
Ġacqu
Ġsandwiches
ĠLorenzo
Ġpardon
ĠBarber
ĠAgricultural
ĠPhilly
Ġregrets
ĠMillions
ĠFrazier
Ġtreasury
ĠKenn
Ġdestined
olved
Back
leader
lyss
ĠReyes
001
bags
ĠStandards
ĠExcellence
ĠMaid
ĠAnthem
FIELD
Ġrevived
ĠQuad
Ġdistinguished
Ġweighted
Ġritual
Ġinvites
wana
iture
ĠCI
ĠMAY
Ġunfairly
ĠKP
ĠMidlands
Ġmint
uers
Ġcatalog
arant
Ġlosers
Ġscheduling
esar
Ġtransferring
Ġbankrupt
Ġmethamphetamine
ĠEsk
ĠTreatment
ĠResponse
Ġhomework
ĠBald
Ġembarrassment
Ġpoorest
ĠPlatinum
ĠFac
Ġunleashed
Ġbrighter
002
Ġdisl
ĠLowry
ived
ĠDemon
ĠNonetheless
arro
ĠCONT
ifted
ĠFreder
isson
Ġrout
ARA
Ġswinging
Oct
Ġliable
Ġleaning
Ġlungs
380
ĠProcess
ĠCov
terrorism
Ġresistant
Ġpumped
Ġtripled
Semitism
ĠMia
Ġpenetration
ĠLutheran
BU
odes
Ġspanning
utch
Trans
ĠVolunteers
Ġpathway
Ġinfectious
Ġdrastic
ĠEngineers
Ġprincess
acts
usting
utive
achel
DO
Ġpave
ĠHerrera
Ġnearing
help
Ġembarked
Ġmodes
ĠDriving
Ġopting
Best
Ġbehavioral
Ġcables
App
otion
ĠExt
ĠSinclair
ĠInsp
Ġsinking
Next
ĠLumpur
ĠShadow
Donald
itals
Ġmentions
floor
Ġconsiderations
ĠSquad
ĠPlate
dos
Friday
Hopefully
arre
Ġalum
":"/
Ġfet
anza
Ġdign
ĠNguyen
ĠRutgers
ĠSew
Ġfilters
ofi
Ġunavailable
ranking
Ġrefining
ĠUNC
Ġmax
yll
Ġhandsome
Ġutterly
See
ĠStores
Ke
ĠAdvoc
ordon
umbles
Ġbugs
olar
ĠCork
Ġtoken
Ġauthorization
Ġconscience
Ġrepl
edi
owitz
iven
Ġlieu
Ġlifts
Lean
Ġmagnificent
ĠFilms
onents
Ġ***
Green
ĠAdvocate
ĠArrow
Ġblows
Ġexploited
fly
ĠAmar
ĠNOTICE
Ġsincere
found
ĠRud
Ġcy
ĠHeidi
Ġempowered
Ġweakest
ĠKru
Credit
aunted
Ġexotic
aning
Ġaw
ĠMulti
Ġanimation
850
ĠCounter
ĠNit
alli
Ġcapitalize
Ġexecuting
Ġdescent
ovi
ĠKimberly
headed
Ġmentioning
)-
ĠSpecifically
ayette
ihad
ĠIss
Ġdisagreed
ĠKum
Ġurges
Ġpermitting
Ġpy
isp
Ġhygiene
Ġmourning
Ġcyclists
cats
FER
cycl
Ġnewcomers
Ġplead
Ġmend
secret
fan
Ġtranslates
unit
ĠTank
drive
ĠSite
Ġacceleration
ĠEnrique
ĠElaine
Ġstaring
Ġbackwards
Ġot
Ġvot
ĠHK
Ġfian
ĠLockheed
Ġmanifest
ĠZurich
pad
ĠRav
flow
Ġmoms
ĠSolid
ĠReady
aughlin
Ġreminding
ĠCOR
Ġoptimal
ĠCrisis
Ġcholesterol
ĠGerard
Ġfest
Ġsanction
Ġdragging
inent
ĠBravo
Ġamend
aval
Ġpoem
Ġinvasive
Ġlandsc
leigh
Ġheadache
ĠMuse
ĠTurning
girl
cess
Ġfalsely
Ġplaintiff
Ġheavier
Ġrumored
Ġeleven
ĠConsumers
ĠOriginally
ĠStatement
bors
Ġrevoked
ĠOmaha
Fox
ĠKle
Ġvault
Ġoutdated
umes
ĠArk
Ġapologised
Ġrockets
ĠMarines
Ġcaptures
ĠMW
ĠWalters
ĠFactor
Ġensuing
ĠSession
oons
Ġ132
gt
ĠPoints
Ġexhaust
ĠOsaka
heed
Ġhandic
amber
inging
Ġll
Ġescorted
Ġfloated
Ġmerge
Ġcompliment
ĠVC
Ġinsulin
ĠDebt
Ã§a
Ġpens
Ġassertion
Ġredevelopment
moderate
Ġleftist
ĠBA
Ġherd
Ġinsecurity
liter
Ġcommence
ĠCaucus
Ġnovels
ĠChevron
Ġerosion
ĠNicholson
ĠRoof
ĠVolunteer
Ġcompelled
Ġcongratulated
ĠPanel
Ġov
idelity
Ġspect
Ġbee
ĠAssistance
Ġterrified
iew
Ġweekday
ĠHiggins
special
ubs
anton
Ġbribes
Ġneat
ĠCliff
Ġdisqualified
ĠND
Ġvers
andra
Ġgraft
value
Ġportray
Ġdaytime
ksh
Ġconsist
Ġhonesty
ĠTimber
ĠNich
Ġinvented
ĠBuch
Ġskull
Ġtags
Ġ124
ighth
Ġrelaxing
Online
Ġsanctioned
Sport
ĠCove
Ġcomics
MW
AMA
mother
Home
ĠCustomer
Ġstrides
ĠWins
Ġrollout
ĠWeaver
Ġshuttle
Ġsteak
Ġglorious
ĠToll
Ġtrustee
Ġinstallations
ĠOpportunity
Ġoper
horse
Ġaided
irus
Ġsleek
Ġyelled
ĠSocialist
Ġapplaud
ĠWah
Ġdevote
Ġdh
Ġarchitectural
ĠMAC
centric
ĠSense
illas
ĠArchbishop
glass
Ġallowance
Ġbundle
andon
eight
ĠKare
haus
ĠAndreas
Ġdoll
RAM
Ġvolunteering
ĠRaleigh
Ġbees
Ġnickel
Ġgenerosity
Ġhomeowner
ĠLieutenant
Ġlandfall
ĠRenew
ĠGiving
ĠContribut
aret
ulf
Ġreinforce
ĠSalv
ĠVenice
Ġfreedoms
ĠTools
Ġ1962
ĠWarm
majority
Ġpleas
oding
plant
Ġtow
ĠBlanc
ĠPipeline
ĠMoor
Ġrefrain
ĠExplore
language
cers
ĠWT
sent
ĠNun
Ġplastics
acas
Ġdisruptions
Ġdiscomfort
enko
Ġimprisoned
Copyright
Ġmyriad
Ġparenting
Ġspree
NBC
Ġonion
ĠIsraelis
ĠRA
Ġrelocate
113
ĠHir
ĠDre
ĠDry
ĠONE
ĠAdministrator
Ġprints
ĠGret
Ġundergraduate
ĠLif
avers
ĠCarney
Ġapex
Ġlenses
Ġliberals
gb
ĠWhereas
Ġcountryside
amine
ĠTerminal
Ġintr
ĠTrey
ALS
Ġcontinental
Ġselfies
FILE
ĠUnity
Ġauthoritarian
Ġoriginated
ĠExcept
yna
Ġmonet
Ġundermining
ĠGS
pi
iq
Ġslides
ĠSummary
Ġpains
cluding
Ġequation
locked
Ġfraternity
Ġwithstand
Ġdevastation
Ġdemo
late
Ġpunches
Ġgeared
nen
ĠBowie
attle
Ġpolitic
ĠGle
mented
ĠCoordinator
Ġupwards
ĠMega
angled
Ġengineered
Ġluggage
ĠWen
ĠSergeant
Ġkindergarten
ĠPortsmouth
uddin
ket
oba
Ġoscill
esse
ĠOlson
ĠBorough
Ġsupplements
ĠEvening
ANE
Ġlava
Ġgearing
setting
urgical
asty
ĠDaytona
Ġbrewery
Ġpledges
rounder
ulous
ĠHancock
rex
Ġram
Ġproceeding
ĠMurdoch
Ġdowngrade
Ġstatues
Ġdebated
ĠSleep
Ġ144
ĠRuby
ĠFi
123
ĠArabic
Ġlasts
ĠIvy
ĠWid
rown
stick
?'"
ĠSTEM
Ġsensible
htar
Ġharbor
Ġcra
ĠAlbum
ĠCarnival
Ġimplies
agement
ĠInitially
Ġchooses
Jeff
ĠHig
Ġtam
Ġlump
ucks
Ġrepatri
ĠMercy
zza
Ġ365
ĠRicardo
ogram
Ġundergone
system
Ġtel
ĠKee
ully
istas
Ġgrains
ĠTomorrow
ĠRC
ĠTurk
Ġfreshmen
ĠAway
ĠSach
ĠUltimate
Ġoffensively
ismo
Ġteaser
ĠJud
Ġlegitimacy
opt
ĠCobb
Ġrejecting
ĠSolo
ĠArcher
Ġsoutheastern
ĠPlain
ĠLoss
Ġminerals
ĠMari
Ġscrambling
ĠPeak
Ġhavoc
rings
Ġunofficial
ĠHaj
director
ĠCanal
ĠNSA
ĠEaton
ĠPART
ĠCommissioners
Ġwellbeing
resa
Ġunderstandable
dates
ĠSorry
Ġastonishing
Ġrevise
ĠEc
ĠLack
endi
endale
also
Ġcolder
Ġheel
Ġcellular
Conn
ĠThur
Ġmassage
olla
clus
Ġtoilets
ĠCelebr
Ġtackled
Ġchorus
ETA
anca
ĠOLED
Ġpunk
ĠBrain
ĠNuggets
Ġseamless
make
atted
ĠRog
ĠPatch
Ġruined
Ins
Ġconsolidate
Ġgospel
ĠCaption
Ġoverweight
Ġscreened
ĠKraft
ĠBain
breaker
ĠFeinstein
ĠDoc
Ġdeepest
ĠOL
Ġtunes
Ġrightly
ĠLanc
ĠBrotherhood
Ġpoultry
ĠPure
Ġstimulate
Ġdiscourse
ĠStark
Ġmuseums
ention
Ġtaxation
ĠAkron
ayer
ĠKirby
farm
oser
Ġcommend
Ġunarmed
ensions
Ġsuperst
Ġoceans
Ġmisuse
LO
ĠByrne
ĠMaritime
Ġdense
Ġexcuses
Ġsuppose
ĠMarks
Ġrainy
Ġreplicate
Ġboutique
ĠRenaissance
jas
icted
Ġreferenced
ĠTir
ĠHatch
ĠCry
ĠPayPal
Ġfulfil
ĠHawaiian
come
ĠThirty
Ġ260
ĠYak
Ġangles
Ġlandlord
Ġlavish
Women
ĠNT
Ġreinforced
Ġprevail
ĠCommunities
Ġfootwear
Ġassurances
Ġlb
Ġairing
Ġresorts
ĠFiji
ĠShay
Ġprevailing
many
Ġimpe
ĠDul
Ġsymbols
zb
ĠCere
Ġapplauded
Ġsoundtrack
Ġdrunken
ĠEuropeans
Ġherds
moving
WR
ĠHindi
Ġwaking
Jo
Andrew
rosse
ĠLegislative
Ġdisgrace
Nothing
ĠBulgaria
Ġhumidity
Ġtranslation
Ġmeasurements
Ġvying
ĠBrid
Max
Ġdir
unci
Ġdefines
Ġperfection
ancers
Matt
ĠShinzo
ĠPresidents
Ġginger
onna
existing
rika
enced
ĠBray
Ġgall
Ġdisrespect
ĠCumber
Ġcontestant
ucky
anticipated
abled
LLOW
Bel
ĠKear
Ġstoryline
Ġrigs
ĠScots
ĠChap
ĠThankfully
Ġcommunist
ĠAdviser
Ġregist
Ġannoying
ĠDVD
Ġethic
ĠFilipino
ĠAdidas
Ġbilling
Ġalleviate
Ġsmoked
Ġhazard
EV
Ag
baum
Ġdoses
Ġoutcry
Ġinclined
Ġpsychologist
itzer
January
Ġmornings
aught
Ġsurreal
ĠCannon
avy
ĠCris
cf
Ġinterpreted
Ġpersecution
vation
Ġupfront
ĠWaste
Ġmills
Ġbombings
ĠHeaven
ĠFlat
Ġboxer
Ġavenues
Invest
ĠZika
Ġbackstage
idas
eston
ead
Ġbishops
Ġrender
Ġfootballer
Ġspilled
Only
Ġsaddened
ĠAbove
inator
tro
onen
ĠAMC
Ġstringent
Ġfooting
ĠGhost
Ġtexting
ĠCPI
ĠUW
Ġaccol
iries
ĠFlex
ĠCarolyn
Andre
Ġsiege
Muslim
Ġautomobile
reci
Ġdean
atre
Ġwax
Ġwo
ĠDuffy
Ġfiance
Ġfib
Ġeagle
ĠCatal
Ġinfants
Ġsubmitting
Ġdownhill
Ġstaffer
ĠLights
Ġeater
ĠCaliforn
Ġsupervisors
ĠPy
Ġcondemnation
Ġsci
Ġhated
Ġtil
ĠLavrov
Ġsab
Ġmotors
Ġlogging
ĠOwn
Ġpi
Ġrepeating
ĠDOJ
enary
ĠChow
fat
Ġbalcony
orie
NING
ĠUnified
Neil
Bill
ĠSims
uten
LV
ĠEMS
Ġsip
Ġreplaces
ichi
ĠFig
ĠCharity
Ġpeek
Ġrack
Ġcousins
Ġresolving
Ġthrone
ĠEngine
ĠChak
Ġlamented
Ġwipe
Ġnutrients
ĠChat
AMP
ĠOprah
uming
serving
Ġfir
Ġlandlords
neck
Ġupload
Ġunspecified
Ġicy
´
Ġze
Ġprohibits
ĠFI
Res
ĠEff
hell
umbo
Ġreceipts
Ġoperatives
stant
Ġwives
ĠCinema
Ġnegligence
Ġgases
ĠLau
Ġbrew
August
never
Ġpenned
Ġincomplete
ĠZh
esi
Ġranged
apolis
Ġwithdrawing
ĠLevi
ĠLevy
ĠDaly
Ġdelaying
ĠMSNBC
ĠCyrus
ĠNutrition
NN
Ġwinding
Ġglow
ĠMY
Ġgoodwill
ĠMON
Ġslots
ĠNina
ĠFIR
ĠLTE
ĠInnov
dev
ctic
Ġanalyses
ĠBangalore
Ġtales
Ġovercame
ĠThurs
Ġcherry
ĠNou
ĠFlowers
1000
updated
rieve
ĠBeautiful
iak
Ġplayback
Ġheadset
Ġashamed
Min
Ġadm
ĠLucky
ĠTucson
Ġentirety
ranging
ĠVance
kered
image
ĠGord
War
Ġsimilarities
dig
ĠJude
Ġlonely
hra
ĠStaples
ĠACA
Ġmeasurement
Ġcooper
ATER
ĠMeng
Ġbarring
190
ĠBatt
Ġreproductive
ĠRowe
Ġsubsid
Ġslogans
ugar
ĠKeller
ingham
fuel
Ġhid
afe
Ġindul
cash
Ġstressing
ĠMIT
Ġtrump
ancer
ĠPes
ĠMint
Ġcrossover
ĠWeiss
ĠElvis
ĠPermanent
ĠKhalid
Ġunjust
Ġexceptionally
Ġfut
Ġavid
ĠEthics
Ġutilized
Ġfeasibility
Ġcatering
Press
wayne
October
Ġfavors
Ġobsession
Ġmelt
Ġmug
ĠMK
Ġapples
Ġvine
cliffe
Ġgrat
Ġspells
ounced
Ġdecree
issy
Team
Ġdeploying
Feb
Ġmiserable
Ġwat
ĠBust
ĠNorris
ĠTimberwolves
Ġangered
ĠArn
oft
rome
Ġadvertisements
onal
Ġnun
Ġtorque
Ġslave
Ġnonsense
Ġcoy
Ġcites
Game
Ġarchitects
playing
Ġgener
Ġsocio
Ġmeditation
Ġforgive
Ġsmiled
%),
Ġpers
ĠSoph
Ġoccupy
atton
Ġwitnessing
Ġapologise
Ġpredecessors
ĠCassidy
Ġtallied
NER
Ġtract
ĠHolder
ĠPav
Ġjackets
Mel
raud
Ġexercising
ĠChung
ĠAmin
athi
ĠMem
Ġracked
Ġcarved
ĠMickey
ĠLafayette
Ġgrill
ĠINFORMATION
usc
ĠPromotion
yson
istry
Ġfulfilled
Ġrestraint
Ġpopping
ĠSlater
Ġmercy
aden
Ġsubmarine
ĠBowling
dogs
ĠSwe
Ġnoticeable
Ġbis
ĠPremiership
Ġspat
ĠTow
ĠWand
Ġmechanics
while
ĠBenson
Ġmolecules
Ġcrosses
Ġrecalling
ĠCertainly
HAM
Ġsever
ĠRudy
ĠDUI
OLD
ĠTobacco
Ġsubdued
Ġquota
TF
Ġflats
Ġemphasize
Ġbelts
ĠOpinion
Ġpiled
ĠSpark
ĠElias
Ġclassification
ĠHands
ĠCV
Ġtoast
Ġcandle
atching
short
ĠDup
Ġult
bats
Ġmarketers
ĠAvery
ĠColbert
ĠIk
ĠVac
ĠJackets
Ġmerits
eli
PORT
Ġelevator
irming
effective
Ġgroceries
Ġhi
ĠINTER
ĠSAP
ĠNYPD
ĠKY
Ġangel
Ġspectacle
rÃ©
ĠRoche
Ġinsects
Ġcommenced
ĠFoley
Ġdarker
ĠUg
ĠMostly
Ġtermed
uci
ĠExec
ĠBrittany
Ġharmony
Ġadvocated
Ġparcel
ĠHots
Ġmonarch
ĠSiri
odge
ĠPag
Ġprogressing
grounds
Ġonstage
Ġwarmth
ĠWon
Ġviolates
ĠSaudis
Ġbumper
Ġpatrols
ĠBarron
Ġindoors
Ġtar
Each
Val
Ġapplicant
ĠCater
Ġclassics
ĠThreat
Ġwrapping
ĠIdlib
anking
Did
adia
ĠRig
ĠBram
ĠLaurie
ĠHair
ĠCannabis
Ġdaylight
ĠNorm
ĠRip
sin
unta
Pass
ĠAcad
ĠCummings
Ġtheirs
ĠDistribution
especially
Ġgrilled
Ġaffiliates
ĠVander
ĠCath
ĠProductions
ĠTrek
230
Ġcasinos
ĠCain
atu
idget
ĠWinds
Ġunanswered
Ġintercept
ĠMarty
Ġrefin
Ġlieutenant
cas
Chief
average
ilot
Ġscrimmage
ĠMud
speaking
ĠFranken
ĠTories
Ġabstract
awar
ĠTerms
dal
ĠFur
Ġhumour
rh
Ġsitu
aed
ĠFIN
Ġtranscripts
approved
ĠParsons
Ġpigs
Ġrepayment
ĠARM
ĠElliot
ĠLevine
Ġtagged
pun
ĠDwight
Ġconfiguration
sis
ĠAdult
Ġearthquakes
Ġcreature
ĠMRI
Ġmach
Ġprescriptions
cover
Ġministries
Ġinaccurate
ĠLabs
ĠMGM
Ġtomato
Ġeng
Ġopposes
owan
Ġmapping
Ġconsum
online
eters
code
Aug
Point
branded
pling
ĠCalder
Oper
ĠMiddles
Ġchampagne
ĠTues
Ġsampling
Ġenergetic
rano
ĠStyles
Ġneglected
ĠDamon
Ġendanger
Ġsouthwestern
ĠATM
ĠDuck
engers
Ġdan
yth
Ġbou
ĠDecl
Gold
Ġprojecting
Google
ĠHussein
Ġaccomplishment
itarian
Ġgossip
ĠRai
ril
ĠSke
Ġpsychiatric
ĠMacBook
ĠAdobe
ĠHodg
Ġaccompany
Ġadvertised
Ġreminiscent
Ġgeographical
Ġconvertible
IK
CTV
Ġcommunal
Ġchim
Ġselfish
Ġdrilled
Ġtortured
Ġblacks
noon
Ġmanifesto
ĠRichie
acco
Im
Ġdebit
ĠSNP
perfect
gard
ĠRatio
Ġstubborn
Ġaccumulation
Ġcongregation
Ġkissing
Ġkillers
ĠAbbey
von
ĠFuj
ĠIsabel
NB
ĠNish
ĠJulius
ĠZimmer
Ġuncover
dar
isle
ĠCompar
Ġcounselor
ĠSok
ĠCumm
ĠHip
Ġurgently
Ġrentals
Ġapproving
Ġirrigation
Ġprostate
ĠJudicial
ĠSubmit
ĠTanner
attack
emb
Ġreclaim
Ġec
Ġbrutality
Ġcommanding
Ġreasoning
Roy
ĠElect
ĠMobil
anding
Ġmirrors
Israel
Ġpavement
Ġoverdue
ĠMd
street
Ġthrill
pora
azon
Ġbrewing
enge
ĠDisaster
Ġbuilder
ods
utsch
Ġterminals
ĠBaird
enburg
Ġhast
Ġbrass
Ġparental
enture
ĠConduct
Ġexpands
luck
mur
ĠBj
Ġadministrations
ĠOlivier
oux
Ġnarrowed
winner
Ġmakeshift
ĠVAT
ĠJavier
-,
Ġsystematic
Ġenforcing
emin
ĠAudio
United
gener
ĠKara
ivas
ĠPretty
ĠLob
Ġpetitions
ĠMercer
ampa
product
Ġdistributing
Ġtunnels
Ġcondo
ĠRSS
ĠCarlo
Ġpumpkin
Ġsto
Ġassumes
oway
hiba
lection
Ġgam
ĠAires
Ġtransmitted
Ġtrousers
Ġcheers
ĠJensen
Ġemer
Ġsimpler
Ġcolored
ĠSustainable
Ġinstruct
Ġpoles
Ġsupervised
Ġinteg
ĠMoreno
boarding
igrant
ĠYoga
Ġenvironmentally
Ġsacrifices
Ġshores
Ġ127
Ġestranged
Ġintoxicated
Ġemergencies
ĠKosovo
yang
Ġfastball
Ġpackaged
LAN
Ġhurry
ĠManny
Ġporch
Ġcuriosity
ĠKend
thouse
ĠTou
mun
Ġwaving
Ġpasswords
ĠSwan
Ġprefers
ĠCorrections
aic
Ġejected
Ġdossier
ĠChal
Ġfacto
Ġspine
leck
Ġrestriction
Ġdisagreement
grown
ĠEdgar
Ġquantities
ĠRapid
Ġpals
Ġspared
Ġremarkably
ructure
Ġbackers
ĠGoals
cles
rolling
ĠBlasio
Ġorchestra
ologies
ĠRise
Power
Ġuptick
atha
ĠMob
Ġshotgun
downs
ĠBorg
Ġmorale
Call
wave
ĠDuc
Ġunwilling
oad
Ġbusinessmen
Ġrefriger
Ġgamers
Ġcele
Ġprecip
Ġrenegoti
OY
ĠPharm
Ġresponsive
Ġservant
eye
Ġraping
vas
Ġgroin
ĠMelvin
ĠKurds
Ġstricter
ĠMum
ients
Ġstandalone
Ġforums
Ġcommemorate
Far
ĠTelegram
Ġscreenings
ĠLeonardo
ighton
ĠDOWN
Ġmodule
Ġremedy
Ġ280
Su
ĠBecker
ĠGast
prem
ĠInto
oyle
114
Ġadhere
Report
ĠJaneiro
ĠKry
Pakistan
Ġrobotic
ande
Ġoverlooking
ĠTreaty
Ġrect
yne
Ġbattlefield
ĠGeoff
Ġearns
ĠMiner
Ġteased
Ġexemptions
Ġvacancy
oku
Ġvulnerabilities
ĠRou
Ġobserv
Ġoverlook
Ġcorrespond
Ġtheatrical
Ġrobotics
ĠCompl
ĠPasadena
laden
Ġvastly
olit
Ġjustification
Ġtampering
ĠSutherland
ĠMens
Ġinvisible
uren
ĠAshton
owl
Ġdisqual
ĠEva
Ġfriction
ĠIrvine
Ġaliens
ĠPension
ĠAssets
ĠBenedict
ittal
Ġsword
Ġunderwear
ĠFarmer
Ġtimber
Ġdependence
ĠTang
Ġ165
ĠNazis
Ġpunching
ĠGloria
usat
Ġluxurious
chuk
ĠCot
Ġregained
Ġreassure
Ġhello
Ġante
Ġnegotiators
Add
paced
Ã©r
Ġdemolished
Ann
joy
ĠJenna
Apple
Ġdisturbance
Ġcommissions
ĠPolitico
along
Ġnem
Ġauctions
ruck
ĠOD
ofer
Play
Ġcarn
vez
Ġtents
Ġcongratulate
ĠLiquid
ĠCoyotes
uku
ĠAllah
Ġbend
Ġcanvas
ĠClifford
Ġvolunteered
Luc
bp
ĠCensus
ĠShot
Ġanonymously
ĠAnglo
ĠBayer
ĠAber
ĠCorrectional
Ġhardship
ĠBuenos
ĠDaw
Ġbaskets
Ġupstairs
Ġmindful
ĠLCD
ĠBlackburn
ĠHale
477
Ġcircus
ĠDragons
Ġrubble
rb
Ġheadaches
aunt
itus
Ġscaled
ĠComic
asio
ĠNordic
Per
Ġbombers
ilitation
Ġindirectly
ĠHod
andan
operation
Ġpuppy
ĠMats
Ġstewards
roup
Ġmemorandum
Ġpatio
const
ĠBold
ĠKaiser
Following
Ġcompat
Ġsidewalks
ĠFitzpatrick
Ġsunlight
ĠLever
ĠBecky
icles
ĠProbably
Ġgarner
ĠTomas
Ġblankets
uga
jiang
Ġrevel
ĠHutch
llers
Ġtrimmed
ĠSTR
ĠKR
ĠPike
ĠASS
Bay
Ġdiagnostic
ĠSteph
Ġtoured
ĠAvoid
vic
Without
ĠClinical
Ġblo
undo
ĠBoise
Ġspeculated
ĠProt
vention
Ġscholar
ĠSta
Featured
ĠPrev
Ġpenny
ĠHath
rawn
Ġrenovated
ĠFried
itol
uddle
Ġinquest
Ġmetropolitan
lights
Ġtempo
onom
ĠImport
Asia
Ġowes
Ġmagistrate
ĠFriedman
Ġcontacting
Ġstrains
Ġhomage
Ġlent
ception
git
Ġlively
Ġscra
WW
Ã¶n
rill
Jack
ĠShank
iani
Ġdecreasing
MON
ĠSupervisor
ĠCats
ĠFusion
Ġracially
ĠTara
ĠPurchase
ĠRally
ĠGraph
ĠHello
hest
ĠVarg
Ġdrowned
ĠThu
ĠWet
ĠEug
Ġrainbow
Ġtelev
ĠAmir
Based
Ġcookie
uding
Ġcontracting
Ġobjected
Ġfork
acent
ĠTil
ĠLilly
ĠEur
Ġhormone
Ġnails
ĠFischer
Ġpier
EMENT
Ġeruption
visory
Ġspeculate
apan
ĠJub
ĠHuckabee
string
stay
Ġsustaining
VM
Ġpriv
Ġclos
Ġdownloaded
ĠIv
Ġfinanced
ĠSao
ĠEverett
rene
ĠWo
ĠPiet
Ġengulfed
Ġexiting
uni
horn
Ġgrav
ection
Ġdrainage
Ġfuelled
Ġorganizational
bike
ĠAreas
Ġpoliceman
ĠFirm
ĠSlide
Ġrand
ĠJedi
Ge
really
Manchester
ĠWise
parent
Ġlad
Ġurine
ĠColombian
geon
Ġ1961
Mania
Ġgraph
Ġcod
fred
Ġeffic
ĠGateway
asket
Ġdiminished
Mass
Ġ205
Long
Ġgranddaughter
Ġshining
Semitic
Ġarising
Ġ330
ĠDU
ĠZah
Ġexclusion
ĠClaus
Ġven
oine
ĠAPI
reve
Ġmilitias
Ġfro
Ġwaved
ĠLuxembourg
Ġdiamonds
Ġstabilize
Ġqueue
ĠSponsor
Ġeldest
ĠLud
Ġwasting
Ġdimension
Ġmotorcycles
ucker
ĠTav
Ġsupremacy
Take
ĠCPU
cup
Ġdisregard
Ġenvelope
ĠCah
Ġproposes
ĠMaurice
Ġhobby
Ġharmon
Ġribbon
ĠOrigin
Ġbuilders
Ġconj
Ġcert
eat
ĠStern
ulia
vals
cling
Ġprovocative
Ġsofter
Ġ1948
Ġremod
ĠSob
Ġmaxim
Ġblueprint
oit
ĠGarner
Ġfibre
search
ĠWrite
270
Ġclergy
ĠPalo
obile
Mad
Ġclown
Ġtraced
280
ĠAlberto
Ġdrums
ĠFridays
ĠStrat
stated
ĠStevenson
Pr
Ġboasted
ĠBrees
ĠDonn
ĠMaya
Ġrelieve
Ġ1080
Ġcheapest
Ġuniquely
Ġjungle
Ġprevalence
Ġoutfield
ĠMaps
Ġaccustomed
pac
Ġcombinations
ĠSoros
stad
Ġket
Ġdisgusting
ĠOFF
irs
Ġbiased
Ġpaved
iked
utterstock
ocal
Ġsurround
ĠGuang
Ġspear
ĠBellev
ortun
Rec
acho
Ġfrightening
Ġtyres
normal
ĠYan
ĠWarsaw
ĠBod
ourse
199
Ver
erent
Ġsparkling
Ġchanting
Ġ1945
Ġturbo
Ġhazards
IRE
ĠRonnie
Ġsplitting
ĠMatte
roph
Ġtended
Ġvandalism
alis
SY
Ġoversaw
Happy
ĠTC
275
Ġeco
ĠKers
Ġextensions
ĠFlan
ĠCena
ĠDowns
Ġdrummer
Ġawaited
ĠACL
Ġlegends
ĠRollins
hend
Ġdeparting
Ġtha
Ġunre
.(
Ġfaded
Ġretirees
vid
Ġentrants
ĠStella
arer
Ġteaspoon
ĠSheridan
irc
ĠRelief
ĠButt
Ġris
Ġundermined
Ġsunk
Sam
kamp
riot
rating
Ġclubhouse
Ġpeaked
ĠSki
Ġairstrikes
Ġconce
ĠCPR
Ġesp
ĠWave
ĠColiseum
outheastern
Ġtrou
Ġfeather
ĠSoy
ĠBihar
Ġintervened
mits
colored
330
Ġprocession
apeake
itÃ©
riel
Ġmart
afer
ĠGuests
ĠPie
Ġshiny
ĠSixers
ĠRoads
Ġkicker
ĠCrimes
Ġfrontier
ansen
November
smith
ĠLaun
fried
weet
ĠGrass
Ġsanitation
ĠEat
ĠParts
ĠTun
amar
ĠJupiter
ĠFS
Ġunsc
ĠDone
Ġleveraging
Ġtucked
Ġineffective
Ġriots
wei
ĠAttend
Ġpertaining
amen
monds
Ġmism
serious
ĠViol
rous
Ġ129
uebl
umption
tri
ĠWedding
Ġtroopers
ĠTHR
olving
leys
Med
Ġseparatists
Ġimper
ĠFrontier
Ġwhit
ĠMutual
Ġrested
Ġunhealthy
gang
Ġresearching
ĠColonel
Ġaffordability
ĠRegarding
ĠWend
ĠMellon
Ġplots
Ġcanal
PER
ĠShopping
etry
Ġoccurrence
Ġgraves
BF
ĠKau
indust
Ġbeard
uate
ĠProdu
ĠSomali
ishers
ĠFell
ĠHutchinson
Ġhust
Ġillustration
Ġ//
Ġsharks
Ġcoincidence
Ġremake
Ġmural
course
ĠSultan
arse
Ġwhip
ĠPodcast
Ġtightened
Ġdenim
Ġlandfill
future
Ġsuperv
Hand
Ġpraising
ĠEly
ĠGust
ĠMayer
Ġorphan
Ġrepaired
ĠPir
Ġspiral
husband
ienne
iatric
Ġmarriages
Ġhorn
plain
ĠLum
ession
ĠFeatures
Ġbreakup
Ġentrepreneurship
rina
Ġembargo
Ġcapitalism
ĠMinor
Ġpromo
Ġexcel
Japan
Ġworsening
Ġstumbled
Ġpins
Ġswipe
Ġexile
Ġseparatist
ĠBian
Ġrelocation
Ġcommanders
Ġdowned
Ġblogger
packed
ĠSchn
Ġwaterfront
ĠYus
Ġnegotiator
Ġfavourable
Iran
oulder
Ġcance
Ġvind
angel
Ġauthenticity
Ġtowel
bul
ĠNeville
ĠBuddhist
fields
uly
Ġniece
Ġcorrections
Ġassignments
ĠSchl
Ġharmed
375
Ġwounding
ĠPosition
Ġsupermarkets
Ġdisclosures
Ġ185
esp
ĠMcCull
ĠMale
Ġsailors
mis
ĠSophia
Ġunfolded
owell
ĠScarborough
Ġentrepreneurial
118
ogy
ĠLikewise
Ġswung
Ġdrawings
Ġdrafting
ĠSimple
ĠFilip
arf
Ġfade
Ġmerged
ĠLeaf
sun
Ġflame
Ġindices
ĠCreate
ittle
ĠWer
ĠMond
Ġoz
ĠSmoke
Ġreplies
ĠDH
Ġjud
ĠFalk
Ġ---
Ġconstitutes
Ġtheat
119
Ġintermediate
vill
ĠGow
ĠHut
ł
155
ĠLocated
ĠDoor
Ġsliced
aru
Ġtearing
defense
oyer
Ġprodu
Ġseminar
asso
Ġpeaks
Ġconceal
Ġcrypto
Ġsetbacks
ĠAlicia
ĠFAA
Ġcontinuity
Ġcatastrophe
Ġbeg
Ġscales
apixel
Ġsalon
Ste
Ġlesbian
Ġanticip
Ġutilization
Ġchickens
Ġspinal
ĠJuliet
ĠFas
prising
ĠSalvation
Ġ138
Ġutilizing
âĢ¢
ĠMessenger
Ġrebellion
ĠAlexand
Ġinsect
Ġribs
ĠBild
Ġmonopoly
Queen
ĠNaples
Ġ133
Ġhourly
Ġego
Ġpencil
ĠPew
Ġdesirable
vant
ĠLAT
Ġperpet
lish
Ġ201
Ġdistances
Ġdistressed
Work
Ġtattoos
Ġstereotypes
istent
ĠCoral
fo
Ġpayable
Ġakin
ĠLis
ĠFinding
Ġsusceptible
ĠKiw
Ġforgiveness
ĠMoment
ĠDmitry
Ġrenov
Ġquint
ĠWaterloo
ĠReality
Ġstray
ĠBeaver
Ġbites
Ġelusive
Ġvirtue
Ġgadgets
Ġlandslide
ĠHealthy
Ġpits
Donnell
Ġirony
uct
Ġpractitioners
Ġreck
governmental
Ġatomic
Ġmotiv
Ġpolic
Ġcommunicated
ĠHS
Ġcriticize
Ġsynerg
Del
ĠRoe
Ġinspirational
ĠWarning
pel
Ġnevertheless
Ġdespair
Ġ(.
Ġfearing
Ġgrop
tree
Ġtrusts
Ġinterviewing
amic
Ġscor
ject
Another
pose
Ġdepicted
ĠPhotography
ĠLenovo
ĠEpic
ĠBoot
GI
enses
Class
arity
Ġservicing
ĠHann
Ġawe
Ġoverdoses
ĠFinnish
Ġpav
ĠPCs
SEC
ĠStro
Ġattracts
Ġapprehended
128
Ġunstable
ĠOutdoor
Ġcloth
ĠUlster
Ġvisually
Ġsculpt
Ġsufficiently
ĠKendrick
Ġengages
Ġknives
ĠGut
Ġarbit
osition
Ġemoji
Ġpinpoint
Ġremembering
rence
ĠVish
Ġimproperly
Ġranc
Ġupstream
Ġcheckpoint
Ġrash
eson
Ġtoes
260
Ġinvalid
Ġonions
Ġlashed
ĠDong
Ġprovisional
ĠFern
Ġirresponsible
actively
ĠKnown
Ġben
ĠBlank
Ġactresses
paying
Ġsyrup
isman
Ġeducating
Sunday
ifiable
Post
Ġcalculation
Ġhesitate
ĠIncreasing
Ġreeling
ĠDairy
ensing
Ġmaternity
Ø
./
ĠElm
Ġweddings
ĠYard
117
ĠRocket
OF
Ġtreasurer
Ġrattled
ĠDrop
arel
ĠFulton
ĠGiant
ĠFloor
Jet
ikk
ĠBucs
ostics
reme
ĠRouse
Ġdeliber
ĠEle
Ġconducts
ĠBlog
connected
Ġprayed
Ġcolourful
Ġaugmented
Ġbatted
Ġrelevance
ĠRomanian
acqu
ĠChel
ĠClo
ĠGraves
Ġchees
ĠGibbs
CLE
Ġfertility
Ġambul
Ġspecs
ĠIRA
ĠBooth
ithe
ĠPlayoff
ammed
Ġcollaborating
Ġlunar
Ġconfronting
Ġattribute
King
riz
Ġcasualty
acia
waters
Ġpaving
Ġcaregivers
nor
Ġreacting
ĠHash
Ġsqueezed
Ġexert
ĠMichele
ĠConc
ĠHep
Ġsewage
wart
GY
Ġdiscourage
ĠFir
Ġtextile
ĠSpice
ĠFah
Ġcomplainant
Ġinstinct
camp
ĠEdison
ĠVIDEOS
LM
ĠSands
About
Ġdisk
brid
Ġmuted
ACC
Ġwre
event
Ġicons
Express
udes
ĠBeatles
color
ĠHaas
ĠWolfe
ĠYOUR
Ġaccessibility
ĠCornwall
Ġing
Ġatrocities
weather
ĠDominion
ĠMIL
ĠLara
Ġunravel
Ġmaneuver
Ġfoam
ribe
CI
Ġcandles
acs
)(
coon
ĠPurple
ĠGovernors
ĠKeystone
ĠYuk
file
Ġviol
gery
370
train
Ġgunshots
olin
Ġviruses
ĠTex
hours
Ġprev
ĠRid
ected
ĠVog
riers
Ġmurdering
ĠIz
Ġdeliberations
arming
unda
Ġrink
ĠDrugs
idered
Ġforge
Ġexpansive
VIEW
ĠBots
Ġswitches
KO
atten
Ġvariants
ĠVirtual
ĠCoch
yon
ĠKai
Ġbullied
iday
version
Ġlib
ĠCec
igated
ĠTRUMP
ĠPod
Ġtoppled
Ġeyeing
ĠPatients
techn
Ġhampered
Ġavert
ĠScheme
ĠCorm
Ġpony
Ġzoom
abo
Ġsleeves
lane
ĠLester
ĠDane
Ġcough
Ġsignings
HER
Ġsibling
Ġredemption
Ġstockp
ĠAlgeria
Ġpadd
ĠBrenda
uchi
Ġtransporting
Ġspeculative
ĠSek
abal
Ġshipment
oker
Ġwarranty
atan
Ġblister
ĠCelebration
Ġwal
Ġlac
Ġprioritize
ression
BP
Ġcollaborated
ĠNewsletter
ĠDamian
ĠResidential
Ġgra
Ġfeasible
ĠCrest
ĠBean
ĠSturgeon
ĠTale
ĠContin
ĠMush
Ġrocking
ĠMane
ĠHumane
resistant
ĠFra
highest
fts
Ġamassed
ĠPavilion
ĠSkin
Ġunfold
Ġresur
ĠPET
model
Ġemploying
Ġrude
Ġirrelevant
angu
Page
PN
igator
ĠReb
ĠArrest
ĠGund
Ġmalls
zhen
wed
Ġdaring
Ġfactual
ĠGent
Ġinforming
ĠStri
ĠLounge
.]
ĠTribunal
ĠMoines
Ġshadows
generated
fulness
Ġheartfelt
ĠLivingston
ĠClerk
Ġnationalism
ĠMiche
balls
anos
agle
Ġprejudice
Ġevenly
Ġswearing
Ġexits
Ġcondemning
Ġvanilla
club
ĠFunding
ĠDover
Ġhots
Ġfres
Ġgoodness
ĠMcKay
Ġbulls
avia
129
Ġ1947
Ġdefamation
ĠMoran
irms
ĠFitz
ĠRossi
urated
Ġvariation
ĠBauer
ĠSchro
Ġcolony
ĠParliamentary
ikan
Ġstirring
ĠSheldon
Ġaccessory
ĠUtilities
Ġnab
Ġpract
Ġherein
ĠRole
ĠMant
Ġpharm
Ġ215
ĠNGO
ĠAnything
ĠMacedonia
Ġbree
ĠWTO
Chicago
ĠProtect
quarters
ĠGrassley
ĠInteractive
ĠInterview
Ġ550
Ġastronauts
Ġfreak
ĠIntegrated
Ġindict
Ġgenerators
acio
Kevin
Ġvaccination
Ġblockade
ĠSons
Ġcapita
ĠAnita
ĠExport
ĠNex
ĠAram
Ġzinc
Ġrevamped
Ġselective
Ġmanipulate
ĠBedford
ĠBattery
Ġqualifiers
lean
Ġscrew
film
ror
ĠEllison
ombo
ĠOst
165
Ġslaves
ĠPayton
Ġbarg
Ġrugged
ĠWinn
ĠHammer
ĠUPS
Euro
Ġunfamiliar
Ġdistract
Ġbuffer
ledge
Ġtrunk
Ġ320
122
Ġdilemma
Ġpra
Ġutmost
Ġcampaigners
icular
eful
ï¿½
ĠHQ
neau
Ġsir
test
Company
Ġrescind
ardon
MG
Gov
ĠRaz
Ġrod
fed
Ġpsych
Ġunin
ĠArbor
Ġnewcomer
ĠEdwin
raising
quist
Ġdiscoveries
Steve
Ġscramble
js
Ġacoustic
Ġdeterioration
Ġobserving
ĠWinning
ĠSaban
idy
Ġoverd
Ġscouting
Ġpunitive
ĠShelter
Ġmocked
Ġdreamed
Ġinvaluable
LP
standard
Ġrecounted
ĠSabres
points
Ġfringe
ĠBarker
alian
ĠPROV
Ġcartel
Ġovercrowd
tain
Year
ĠWelfare
ĠChr
Ġintroduces
ĠDoing
ĠGlover
Ġdeteriorating
Par
Ġattendant
ĠMold
ĠFlying
ovan
Ġoptimize
Ġchapters
Ġdull
gay
ĠATP
ĠKah
ainer
feet
Ġjoking
Ġdisadvantage
Rep
Ġtwisted
Ġslain
Ġcomprise
Ġrestricting
Ġdispos
Ġshaky
Ġembattled
owe
conscious
oken
Ġmistaken
ĠDra
Ġreservoir
Ġspate
Scott
avor
Ġqual
amel
hunt
ĠChevy
Ġclaw
Ġwitch
ĠZimmerman
arium
Ġrubbish
Ġstrings
Ġdoc
Ġplaque
ĠCyr
Ġflourish
Ġworthwhile
Ġbanners
ĠLemon
ĠRainbow
Ġconsisted
ĠHOW
Ñ
Ġblogs
CLUS
eely
Ġbeast
ĠMai
Ġhostility
eros
Ġforeseeable
ĠCorker
ĠWEEK
visors
ressive
ĠViktor
Ġbureaucracy
Ġ256
ĠFeel
ĠAdventure
Ġefficacy
ĠInstitution
ĠHarbaugh
ĠPractice
ĠChristianity
Thanks
Ġfridge
idel
Ġeff
Ġvein
terms
Ġignorance
Ġscream
Ġwit
ĠRousse
ĠWillow
Ġhallway
former
Ġshooters
ĠReporting
Ġgal
Ġsavvy
rand
Ġremed
ĠBaron
inar
Ġseizures
ĠThorn
ĠProtesters
ĠRevolutionary
think
ĠCabrera
Four
ĠRudd
Ġprost
ĠBottom
Port
nas
ifax
Wire
Ġtokens
antis
ĠSOU
ĠMilk
asters
Ġshrimp
Ġcakes
blue
ifty
View
adium
fen
zyk
ĠEmil
Ġdismay
Ġtilt
aska
Young
Ġpredators
Ġovershadowed
mitt
ĠSemin
ĠSchiff
ĠClarkson
212
210
Ġvanished
Ġmesh
ĠBurnett
ĠMent
ĠBlind
ĠPatriot
ĠVil
Ġflick
ĠTowns
ĠWhites
Ġspice
ĠMode
Ġnominate
Ġwrest
ĠAshes
Ġrows
ĠClint
Ġgentleman
utan
athlon
ĠIntermediate
hews
Ġoffended
ĠPaige
ĠFinch
ĠAboriginal
positive
Stop
Ġrenting
Ġ[âĢ¦]
ĠHert
Ġvegetation
apes
ĠCanon
appa
Ġabst
ĠKatz
Ġsurfing
aghan
ĠPresidency
Ġscaling
ĠSas
Ġpeanut
Ġrecommending
cious
endez
eker
ĠKamp
Ġsitcom
Ġcrust
women
ĠJes
ĠWhe
ĠWarwick
Ġepit
ĠAlc
Ġdictate
ĠSPORTS
ĠLanguage
Ġindicative
ĠMacDonald
Ġreorgan
Ġ`
ARS
Ġliberation
Ġbless
Ġreflective
Ġà¤
Ġdesires
ĠHank
ĠLaunch
Ġrotating
ĠStones
Ġcoordinating
ĠZeit
Ġskepticism
ĠAlam
ĠTrout
ĠSMS
ĠCrescent
ĠTeacher
Ġfury
Ġeyebrows
onga
ĠPilot
ĠRutherford
Ġinterstate
established
Ġbaggage
Ġ131
riks
mil
Ġneon
Ġqueer
ourced
ĠKash
ĠEleven
illes
ĠOpportun
Ġstre
Washington
ĠDifferent
Ġexempl
Ġboarded
Ġrogue
ĠDNC
rone
Ġreversing
nine
ĠIvory
itating
uve
Ġfracture
255
ĠAssessment
Ġsubjective
Ġfluct
ĠJaguar
Ġstride
Ġreapp
ĠGrow
against
ĠMedina
scenes
ĠNieto
Ġsou
ĠFleming
Ġnarcotics
ĠBere
ĠBub
ĠAck
Ġvinyl
ĠCopy
ĠGarland
ĠDuty
Ġinn
Ġmerchant
Ġactivate
Ġglowing
ettle
ĠBran
Ġsilk
anco
TL
ĠFurn
Ġwithheld
Ġpulse
ĠGU
BUS
ĠHyper
Ġpicnic
Ġpositives
ĠParamount
Ġ737
Ġenlisted
ĠValerie
false
ĠChocolate
ĠSTAR
Ġdescended
Ġtasty
ĠDaesh
ĠNed
Ġcomplimentary
Ġdepicting
ĠHavana
college
Ġtraces
Ġundue
ĠSisters
aum
ĠCourier
ĠOng
ĠSparks
ongs
ĠYong
URR
los
Ġhorsepower
confidence
ĠPett
ĠMeasure
Ġmarches
zig
ĠTOR
Ġexported
ĠRak
ĠInvestigations
Ġterminate
ĠTian
Ġmasters
ĠDS
Ġoutraged
ĠCups
ĠWeir
exec
Ġjourneys
Ġabide
Ġavail
ĠStreets
Ġfixes
Ġcocoa
Ġabundant
Ġhubs
mort
Ġrobberies
ĠBark
Ġprecautions
Ġhammered
ometric
mith
ĠMcCann
ĠJaw
ĠQuest
ĠMcF
Ġlob
Ġlegalized
Ġquirky
Ġtrailers
ĠIndividual
Ġcumulative
Ġenlarge
Ġconvoy
olen
got
landers
Ġscanner
Ġscans
ĠEg
prof
Ġhosp
ĠColo
Ġerr
Ġdeval
ĠUsually
Ġbul
ummy
Ġtandem
occupied
Ġmandates
ĠSwim
121
ussed
EF
Ġfries
Until
rc
Ġbadge
Ġstrips
Ġmagnet
Ġarchive
stan
ĠDeadline
Ġdisposable
Ġbob
Ġnorthwestern
Jul
ĠSAL
Ġinfluencing
Ġdevil
ĠEllie
cms
ingo
888
Ġcosmetic
Also
Ġyacht
Ġlazy
Ġmerc
Ġabsorbed
harm
116
Ġsubpoena
Ġcounters
ĠLori
Ġrandomly
nea
waves
Ġrelie
ĠKiss
Ġchassis
Ġbakery
Images
ĠHolden
Ġamazed
Ġalignment
ĠPowers
Ġlabelled
Ġstaunch
Ġsignaling
Ġsenate
Ġunconventional
ĠAlternative
Ġambassadors
ĠVPN
atics
Ġmosquito
ĠScholarship
Ġhelpless
alone
ZA
chel
Ġconstituencies
ĠCafÃ©
Ġhatch
ĠRupert
Ġrendering
Ġreinstated
Ġinterval
Texas
ĠAHL
February
review
Ġgle
Ġfals
Ġmarkers
Ġgovernmental
ĠPos
Ġarose
every
Ġrulings
obar
Govern
gren
isan
Ġmarketed
Click
Ġord
Ġballoons
asers
ĠHorton
pub
ĠAerospace
Ġflank
Ġmolecular
bour
nuts
Ġalliances
Ġbenchmarks
ocate
stadt
ĠGoodwin
lap
ĠFactors
Never
ĠNem
Ġroadside
orth
Ġexhibited
ĠPearce
ĠOlsen
Ġpostal
ĠLiberation
reen
mary
Ġropes
Ġlarg
Ġgob
boys
ĠSax
Ġreimbursement
ĠVie
ĠCatholics
ĠMartial
Ġpremiered
Ġawaits
ĠUnderstanding
ĠBelarus
ĠVor
ogi
iaz
Ġvictorious
Ġancestors
Ġwreckage
Ġoppression
ĠChildhood
Ġwidth
ĠPlymouth
ĠFifty
Ġoccupancy
etts
ĠFiscal
lifting
ĠTraditional
Ġnostalgia
Law
Ġlays
Ġarresting
Ġanticipating
Ġinsults
ĠExtension
Ġgenerator
ummer
Ġageing
Ġbouncing
ember
ĠWAR
ĠNico
ĠWow
ĠRaven
flower
ĠCrim
bh
Ġundo
Ġburgers
roud
ĠAtkinson
ĠYEAR
Ġpoorer
ICA
ĠSchedule
Ġstronghold
ĠMillennium
Ġ###
ilda
ĠGH
Ġupscale
aldi
ĠResolution
Ġswelling
Ġgrieving
ĠNile
ĠTig
ERY
ooth
BALL
Ġballet
Ġbucks
ĠUV
akin
Ġchilling
Ġdatabases
ĠGD
section
Ġhires
Ġmul
Ġsen
ĠTownsend
Ġinspected
ilic
Ġdiscriminatory
fol
Ġalcoholic
ĠHoff
Carl
Ġvicinity
lein
ĠEco
ĠGovern
Ġsecrecy
aned
ĠDUP
Ġ570
Ġsow
Ġstalls
Ġinsulting
ĠDT
Ġinforms
fitting
ĠDepending
ĠMelanie
ĠThom
path
Ġadmired
Peter
idents
ielding
ĠShanahan
TD
Things
sn
Ġconstituted
Ġ137
Ġderailed
ĠBonnie
Ġgraffiti
Ġearnest
Ġcompliant
blown
Ġalle
prise
Ġfocal
Ġgentlemen
ĠTalks
Ġpassports
Ġdeprived
Ġdude
ĠNath
Ġgoverned
Ġsac
Ġcastle
qv
Ġtolerated
ĠSci
close
ĠDynamics
Ġflashing
yk
ĠConsolid
Ġinherently
ĠForrest
Gene
Public
Ġloser
runners
Ġprudent
Ġpioneering
ĠHowe
ĠButter
ĠArabian
acha
ĠBBQ
ĠMineral
Ġdestiny
Ġretrieve
ĠBav
reth
oby
ĠGrid
Ġgrievances
ĠTips
Ġadamant
Ġdiets
Ġmilestones
Ġcollects
ĠLaboratories
ĠWC
Ġpostp
Ġdams
ĠOEM
Ġrumor
Ġlocking
Ġemission
Ġqueries
Jones
Ġlang
ĠAcqu
ĠMedium
ĠTreasurer
Sept
FB
Ġintegrating
Ġbolstered
Ġincorporating
encers
Ġirregularities
Ġnom
iod
ĠAi
Ġsor
anked
Ġrehears
fig
ĠBug
hoff
Ġtrooper
Ġgalaxy
amon
ĠAtlas
Ġsolicit
Ġsings
ĠInstructions
ĠMig
thinking
ĠCostco
Ġbreasts
Ġportraits
ĠCock
Ġsubscriptions
Ġpine
Ġhaunted
ĠMED
eer
ega
ĠZa
ENN
ĠWinners
aith
safe
Ġ143
ĠWeston
ĠLansing
ĠLaurel
ocrat
ograph
Ġmatchups
ĠFriend
Ġdigest
Ġdimensions
azing
Ġtipping
Ġenrich
gart
argo
Ġoutbreaks
Ġsalvage
ĠErica
Ġmodules
ĠPDF
ĠGoods
oots
2011
Ġinterrupt
Ġradi
ĠSimone
vell
ĠSV
extremely
Ġstadiums
ĠRox
Ġconflicting
Ġyouthful
ĠUM
series
Ġded
Ġfielding
Pre
itled
Ġstreamed
Ġapprentices
ĠAlec
ĠGap
ĠPrem
Ġleased
Ġdeepening
Ġbounds
Ġrethink
ĠVoting
ĠScha
blood
ĠReeves
Ġbells
Ġcollector
ĠCrimson
ĠWheat
207
ĠHB
ĠBCC
Ġsync
ĠAnders
Ġthanking
Ġlayoffs
Ġfoolish
Ġcustod
Ġelephants
Ġcorrelation
ĠHarding
ĠGPU
ĠBarnett
Ġol
Ġalarms
Ġfluctuations
shop
Ġcommentators
ĠAlpine
Ġmur
Ġbiotech
Ġunlocked
ouri
roe
ĠPayment
ĠPOL
ĠGuest
Ġphrases
ĠBuilt
erves
Ġnutritional
205
ourage
Related
Come
ĠSAT
Ġgatherings
Ġsquads
Ġorganising
Ġministerial
Ġkilomet
ĠJump
ĠStrength
ĠFerr
Ġillustrated
ĠOber
Ġextrad
Ġlimitation
idis
ĠMonths
ifts
Ġmotives
Ġmaternal
Ġbait
Ġadversity
Twitter
ĠUni
Ġgrappling
Ġbowls
ĠHib
ĠCopenhagen
Ġsergeant
Ġintro
Ġscrambled
ĠExc
Ġshowcases
Ġplotting
Ġsym
ĠNah
berries
itching
conn
istle
ĠBeginning
asley
ĠMeadow
ĠCra
Ġsupremacist
Ġsweats
production
innon
ovo
Ġscept
Ġdrowning
ĠEh
Ġdecorations
Ġsympathetic
raction
Ġ195
ripp
ĠNotice
charging
ĠDIY
ĠJin
Ġskinny
Ġmaj
Ġwhisk
Ġcongreg
RAL
Ġvolley
Ġestablishments
Ġcite
Miss
Int
iola
ĠBare
KING
ools
private
Ġflaw
Ġwires
Ġideals
oub
Ġ"'
ĠCompet
ĠStatements
ĠHDR
rm
Ġbegging
uffs
Ġdispatch
Ġskipped
Ġlabs
hawks
Ġexpl
Ġpatriotic
ussions
Ġportrayal
ĠBudapest
ĠCod
Ġextingu
smart
Ġburdens
ĠDrama
Ġaltitude
Ġpursuant
à¥
atari
cot
Ġhotline
ooters
ĠRolls
Ġjeopardy
oids
Ġpageant
149
Ġdistinguish
support
ĠHighlands
ĠErnst
ĠHole
pering
ĠHasan
Ġrece
Ġirregular
Ġdisturbed
Ġcoupon
ĠElijah
oise
Ġfriendships
girlfriend
Ġrampage
arers
Ġdispens
assion
Ġtentative
ĠExploration
fashioned
ĠInstit
Ġthemed
ĠKurdistan
ĠCAL
ĠSweeney
Ġransom
Ġstamps
ĠSchwe
ĠLucia
124
omore
Ġmotivate
ĠWorcester
wald
CAR
iken
andro
ffic
ĠRehab
Ġgrou
Ġcontrollers
ĠHai
nz
Ġartillery
ĠMish
Ġregistry
Ġfrontman
ĠCharg
orneys
ĠPRESS
Ġperceptions
ĠMcGee
AU
mg
Off
ĠNGOs
chemical
Ġbrun
ĠHav
Ġlace
Ġ202
Ġdefer
Ġinjected
Ġgluten
ĠRin
ĠAvalanche
Ġcorpor
ĠPamela
Ġfills
ĠReve
ĠMonument
Ġnationalists
ĠIQ
adden
ĠLoop
Ġ134
Reg
click
bush
ĠKub
ipes
Ġtoggle
ĠRae
Ġburgl
Ġholistic
ronics
Ġprominence
jack
Ġfinan
icates
Ġvel
important
Thursday
chet
Ġrefunds
ĠElder
ĠOwner
Ġtakeaway
Pe
ĠToro
Tim
fix
before
ĠMotorola
Ġlev
Term
ĠSne
Ġmisinformation
ĠSinai
Ġnitrogen
Ġ203
Ġescaping
Ġjunction
ĠSantana
ĠYemeni
Ġwhipped
ĠStephenson
Ġattire
ĠBard
atically
ĠFaul
ĠSym
resh
ĠMG
Sub
ĠCarmen
Ġig
ĠSanford
ĠYa
cycle
Ġencryption
ĠScal
ĠChest
ĠMadonna
agin
ĠDHS
ĠCed
YR
Ġtruce
ĠBike
Ġfoes
ĠSlovakia
adal
Rain
OPE
Ġlockdown
Ġunilateral
Ġoverseen
Ġblames
Ġbarrage
aan
uds
ĠRust
ĠHC
cox
ĠAllied
ĠJosÃ©
pected
Ġunp
Ġsomeday
Ġdeductions
icial
ĠPRO
ĠIntern
Ġhemp
Ġkilograms
Ġnets
ĠBACK
early
outed
Ġrelegated
Ġ1958
ĠMustang
Ġgamble
Ġprostitution
ĠPapa
Ġinexpensive
GHz
Ġjerseys
Ġmisery
VIS
ĠRAW
Ġthri
Ġaffiliation
small
Ġflashed
Ġcoastline
Ġgard
Ġsv
Ġwaits
itton
London
Ġaccus
ĠCharge
Ġincub
Ġwanna
ĠAwareness
abies
ĠUh
Ġpersuaded
ĠThames
Ġcurated
Ī
Ġbrutally
Ġrooftop
Ġoy
Ġ1900
bery
Ġuphill
Ġinteracting
Ġchilly
ERE
Ġcapsule
ĠSaul
ocker
Ġdeserving
ĠBowen
ĠReaders
ĠWriters
Ġartifacts
ĠRanger
reau
Ġimperson
Ġhears
ĠMaher
neg
Ġmantra
Ġmull
Ġelders
ĠAmtrak
Ġspouses
ĠHak
Ġopenness
Ġprevailed
Ġfortnight
Pal
ride
Ġillustrate
dominated
trust
ī
ĠFemale
ĠSlim
Ġdesc
ĠKathryn
Ġdeepen
TAIN
eredith
Ġchanted
ĠHector
bread
ĠIsa
Ġvolcanic
Ġah
owners
aquin
Ġmelting
Ġpreschool
ocus
ĠMast
ĠMyr
Ġsuppress
Ġversatility
ĠNEC
Ġhoax
Ġmutually
ĠNeb
ĠWheel
kit
abl
again
ĠSonny
rift
Ġsweater
Ġinund
ĠTaco
ĠBout
Ġnonprofits
Ġmodify
Ġprofessionalism
ĠGould
ĠGuerrero
Ġterribly
ĠBenz
Ġcountered
Ġbean
ĠPhelps
Ġprowess
bc
Ġfeast
Ġ5000
Ġrevisit
Ġchin
agent
Ġtones
Ġextraction
ĠPosts
oin
Ġattain
Ġgardening
earned
ĠOtto
player
Ġscams
ĠHonolulu
ĠAppro
ĠHIGH
Ġdwell
Islam
leaders
Ġlegisl
expl
ĠChoi
Ġfrenzy
Ġcommercially
Ġlbs
Ġgateway
ĠAndersen
emia
lez
Ġresidences
office
ĠHelsinki
olia
Ġwolf
Ġstyling
ĠJunction
ĠPeyton
udo
ĠDorothy
Ġfreshly
ĠJulio
ĠSunset
ĠMadden
Ġissu
Ġsounding
sports
Ġmassively
ĠRahman
Ġpresided
Instead
Ġ136
ĠHowell
beit
Ġprosperous
Ġwrongly
ĠRaqqa
ĠCes
Ġbuddy
Ġchatting
Ġfencing
Ġtant
ocated
ALK
Ġsnapping
euro
Ryan
ĠRecogn
ucked
Ġpurported
ĠCann
Ġintimidating
Ġrulers
ĠMarse
Art
ĠAadhaar
Ġvows
Ġhunter
ourmet
ĠVarious
2009
anie
Ġcompassionate
ĠParking
Ġmalaria
Ġamnesty
Ġworsened
ĠTitan
Ġcrossings
drug
Ġaddicted
Ġremorse
ĠDestiny
Dear
Ġhur
Ġimplicated
Ġplayful
Ġripe
Ġsizable
Ġcrab
Ġliqu
Ġdrib
Ġcontraction
cro
ĠGus
Ġdoomed
Ġmog
ĠMonitor
Count
Ġsadd
Ġwrestler
Ġrestraints
Ġraging
185
Ġtapes
Ġmitigation
ocratic
Ġvib
ĠSnowden
aldo
Ġweights
Ġ1959
ucc
ĠCoc
Log
ĠStev
Ġdealership
Ġtrademarks
iru
Ġbeneficiary
Ġlegislator
Ġdeadlines
Ġcosmetics
ĠTammy
ĠCombined
Ġeducator
athon
Ġcombo
fu
appropriate
nington
ĠLiberties
missions
opard
ĠMondays
Ġfetch
Ġhers
jon
ukes
zek
Ġvetting
yet
Ġfacilitating
ĠStras
character
ĠHeads
Ġclim
ĠAlbuquerque
Ġbind
Ġconcluding
ĠBasically
rail
ĠTCU
ĠDepression
Ġhem
ĠHue
Ġpand
Ġscoreboard
Av
Ġidol
compl
Ġredesign
ĠJarrett
Ġfavoured
ĠINS
Ġpropelled
Ġevasion
Ġwidened
Ġwastewater
nard
responsive
Ġdemographics
engine
ĠBrewer
ĠBaxter
ront
ĠColon
Ġpromoter
Ġgenres
ovsky
build
urate
ĠCohn
design
Ġturbulent
Ġcurtain
310
ĠLamp
ĠBonds
church
Ġdeterrent
Ġdictatorship
acement
haul
Ġspir
Ġconceived
Ġstern
sit
Ġsingular
ĠYog
Ġconditional
Ġide
lund
Ġautop
ĠBEST
ĠJed
Ġrationale
Ġalarmed
Ġshovel
ĠProb
ĠMao
ĠBurgess
Ġ1953
above
ĠManson
Ġdismal
ĠFrankie
Ġtempted
Ġunderdog
ribing
ENCY
ĠDele
Las
places
Ġnotoriously
ĠAkin
Ġglut
Ġseamlessly
Ġrecess
written
ĠTJ
occ
ĠTerritory
ĠAIR
ĠDiagn
Ġvacancies
Ġcultivation
ĠAless
Ġrenamed
ĠMahmoud
bright
Ġvisibly
Ġnas
erred
ĠCarn
Ġtriggers
Ġpunishing
Ġluc
ĠBett
Ġbeam
ĠCheng
aina
Ġdetermines
ĠGerry
Ġshocks
Ġstainless
Ġdefects
ĠCinem
Ġtorrent
Ġresurgence
Ġcoral
Ġblitz
ĠGel
Ġstemmed
gur
Ġlymph
zzo
Ġspearheaded
Ġlicences
';
Ġarbitrary
ĠUzbek
Ġthief
reaching
Ġcand
ĠEA
ĠParaly
ĠEmerson
ĠSergey
ĠScher
ĠWr
rowing
Ġ3000
Ġmighty
elight
mAh
Ġcelebr
ĠConclusion
ĠCathy
Ġpolished
uddled
ewski
Ġfucking
Ġinterfering
Ġlandscapes
Ġfearful
ĠDetention
%).
ĠTT
Ġbleak
Ġindebted
Ġcheat
Ġconsolation
ĠPace
raine
Ġhonorary
420
Ġtechnician
ĠComprehensive
Ġfences
Ġwearable
ĠMarilyn
stru
Ġdrained
ĠGibraltar
lag
Ġdisorderly
Ġproclaimed
Ġcapacities
Ġretains
ĠVid
oshi
ĠEid
Ġanalytical
ominium
ĠExaminer
ĠNAACP
ocol
rev
ĠRim
ĠWoody
ĠMcKenna
ĠLennon
ĠEmploy
Fort
psy
Ġsphere
oday
ĠChick
ĠCompared
ĠIranians
ĠAccountability
itchie
ĠDickinson
Ġflock
Ġeclips
Ġnat
anke
ĠNeighborhood
Ġ141
Ġscarce
Ġcreations
lists
Ġuseless
Ġcriticisms
Ġruler
ĠHick
arya
worker
alam
Angelo
otle
Ġnewsletters
Ġerected
Ġzip
ĠBirthday
Ġdogged
Ġdanced
Ġconfession
Ġvomiting
ickers
Ġfox
Ġdeduct
Ġstresses
poll
ĠRadar
Ġengagements
Ġexaminer
Ġopportun
Ġlongevity
Ġbanana
carbon
uo
ĠLT
Ġsynagogue
Ġblackmail
INK
Ġfle
ĠGutierrez
Ġracket
Ġevenings
Ġdietary
ĠKok
Ġfaulty
Ġabandoning
ĠFlow
quest
estead
Ġbir
Ġsuicidal
ĠGift
ĠMissing
ĠMazda
ĠRib
ĠJourney
Ġconcede
Ġbrushed
Tw
andowski
ĠYun
Bride
zai
awatts
Ġcha
Ġspans
SF
Ġshells
planned
ĠGeographic
ĠVent
Ġfav
Ġinterrogation
Ġvaries
ĠPlat
operative
avid
Ġgreatness
ĠStrait
ĠSelling
Ġlawful
Ġlyn
Ġfunnel
Ġpundits
ties
Ġpneumonia
Ġcommencement
Ġbrisk
fires
ĠHTML
ĠSevent
Ġhistor
Ġ147
olls
Ġpian
Little
Ġcommercials
Ġdeteriorated
Ġbasin
Ġprohibition
Ġrestrictive
Ġtom
ĠPulse
vale
Ġmim
ĠLyons
ĠTrinidad
data
195
ĠPain
vor
ĠDirectorate
Wow
essential
Ġemerges
ĠDoors
Ġunde
Ġarchives
ĠIX
ĠAman
oric
ĠOper
nothing
Ġ142
igr
rust
ĠBYU
ĠBom
Ġrift
ĠAbs
ĠJenn
Ġrookies
hoe
Ġunderage
eden
Ġroasted
Ġenrol
Ġerased
Ġfreeway
Sil
Ġplanner
Ġconfess
ĠDual
ĠHeadquarters
bottom
Ġstatistic
ĠPush
Ġanim
ITT
Ġexecutions
Hub
ĠStick
Ġobscure
oven
Ġcoats
unc
Morning
Ġnit
mie
Ġcurves
gew
ĠAnniversary
members
ĠAbsolutely
Ġapt
otional
ĠGin
izo
Ġpretending
arak
Ġorganise
Ġroyalties
ĠCamden
Ġsausage
Inst
Ġchalk
ĠSurf
ĠSunrise
Ġmoder
aido
loving
lus
Ġoblig
Ġmotions
Ġclarification
ĠOM
Ġbishop
Ġexhibitions
ĠRifle
ĠPhot
ĠHM
ATIONAL
Ġwid
Ġreside
ĠPV
OOK
ĠTue
Ġ1200
Ġ1957
Ġespionage
ĠAPPLIC
Ġblasts
fter
Ġimmensely
ĠLots
Ġinflammatory
anging
Ġtumultuous
identified
Ġstead
ĠAch
Ãī
Ġbub
hler
olution
Ġshun
Ġnull
Ġunused
ĠObs
Ġinsol
ĠAttack
ertain
Ġdefiant
Through
ĠArmour
Ġsimulation
UCK
Ġinfluenza
Ġonset
Ġbored
Ġsouls
Ġreferees
Ġcollaborations
ĠLer
Ġcreepy
Ġanaly
ĠEffect
orting
Card
Ġdice
Ġharvesting
235
sty
ĠMcCartney
Ġsalute
UMP
Ġherb
ĠAbuse
ĠRamadan
Ġsuck
trained
ĠPhysical
iren
anches
erie
Ġhangs
Ġcataly
Ġintuitive
assi
Ġtechn
Ġjugg
Ġgameplay
Ġapolog
Ġfifteen
Ġgalleries
Ġoutlines
patient
ĠPotential
Ġethnicity
Ġharbour
Ġoverthrow
ĠLung
Ġwarehouses
ĠMonitoring
Ġmentors
Ġsized
Ġenvisioned
Ġgin
DT
Ġpropel
ĠKul
ference
estic
ĠLego
Ġdinners
ĠMoe
designed
ĠSusp
ĠBrick
qua
IDS
ĠBam
athe
Ġslices
Ġbottled
thy
producing
ĠTerror
professional
ĠKis
erto
ĠVehicles
Ġbeforehand
Ġdetrimental
weights
Ġallowances
Williams
ĠSyrians
ĠSto
Ġcozy
reditation
ensen
ĠSard
Ġroy
ooting
ĠReserv
ominated
emate
ĠTot
ĠCarnegie
ĠThib
ĠMarshal
Ġ152
Ġmayors
inery
ĠFiona
ĠCadillac
ivated
Ġeagerly
ĠOffensive
Ġastronaut
ĠVital
Ġcane
Ġquitting
ĠLone
Ġcensorship
ĠWelch
ĠUd
Ġmarquee
ĠDip
Ġwhereby
Ġtiger
gem
Ġconserv
Ġpresumed
ĠEntry
ffer
ĠProceed
Ġbrawl
ĠJaime
Ġecho
Ġadvancements
Ġtransitional
erick
Ġbully
anan
Ġreinvent
ĠLetters
Ġbricks
ĠSmy
Ġtowering
gging
299
orian
dimensional
ĠForty
ĠSinn
ushi
ĠSurveillance
enabled
ĠMous
ĠVive
Marcus
Ġvom
Ġcreek
Ġlime
Ġseismic
ĠFork
Ġembroiled
marks
Ġherald
ĠSonia
âĢ¦"
wired
Ġobliged
ĠProjects
lde
ĠRiders
Ġovercoming
Mail
ĠLawn
ĠHawk
figure
ĠWritten
Ġens
Ġspacious
target
ĠRecep
ĠSAM
Ġentertained
Ġignited
ĠCENT
ogenic
Ġunatt
Ġexceeds
Ġ--------------------------------
Ġpillars
ĠBorders
ickey
Ġextinction
Ġviability
Ġtumors
ĠWilkinson
ĠKEY
Ġbins
ĠReported
Sm
ĠExclusive
ĠChilean
info
Ġwilderness
did
absolutely
pillar
Ġelites
ĠPreview
ixie
Mont
ribut
dream
Ġplanners
ĠSomerset
Ġenvis
ĠStall
Ġelevate
ographies
rama
Ha
Ġamidst
oho
Ġrejects
Jim
Ġmarginally
Ġusher
arez
ĠHawth
Ġsprink
ĠOffer
Ġanchored
ucking
ĠGarn
ĠConserv
Ġsocietal
Ġbrowsing
Ġbidder
burgh
ĠRunner
Ġtrendy
verts
imposed
ĠPatton
lements
Ġspicy
Ġswe
ĠStrike
Ġclam
ĠYankee
ĠKT
ĠGreenwood
ĠWays
Ġ2050
Ġattach
ĠShim
Ġmeltdown
Ġassemble
ĠUPDATE
Ġscout
Brown
ĠKobe
Ġpostpone
liness
allo
rief
ĠGerm
ĠFD
ĠReggie
ĠUnivers
ĠShepard
Ġcancell
ĠRomeo
ĠWarrior
ench
ifier
Ġprivileges
Ġsenses
Ġimpoverished
ĠPostal
encer
ĠConrad
Ġprinter
Ġinflicted
ĠGamble
ĠHeroes
132
Ġrevisions
Ġunsuccessfully
ĠHeisman
Ġstamped
inding
ĠLuna
Ġreinvest
ducers
ĠPassword
Leod
Ġcompounded
',"
ogging
Ġprobing
ĠPBS
ĠMU
ĠWhenever
Ġsped
ĠCompetitive
isans
opa
Ġcleric
Ġvivid
à¸
126
Ġinconvenience
udi
Ġimmersive
Ġdiversion
Ġlogs
Ġspying
inct
Ġlitres
Ġmetallic
identally
FX
Ġloudly
Ġnursery
Ġcollectors
ĠKart
Ġescalate
Ġringing
Ġprocedural
Ġdisrupting
ĠEthiopian
ĠCFL
Ġillustrates
Ġperks
official
325
Ġmillennial
Ġbreadth
Ġmelted
Ġ850
ĠBake
donald
ĠGrac
Ġseeded
ĠDiscount
idates
Ġdrift
Ġcaptive
Ġseriousness
Ġrepercussions
Ġdisciplines
Ġthesis
Ġsleeve
ses
Monday
Ġthwart
ĠLic
Ġquadru
ĠPresbyterian
Ġreactors
ĠSuzanne
ewater
Ġlam
Ġbreastfeeding
Ġrats
ĠArtists
Ġdomestically
Ġdecom
ĠArms
basketball
Ġscrub
ĠTeddy
beh
ĠBetsy
ĠNursing
Ġdescriptions
127
gil
itional
Ġchampioned
ĠCalling
Ġrealization
ĠBuddy
hou
ĠDire
ĠHuff
Ġlipstick
Ray
Ġflare
belt
Ġbrightest
Ġmalfunction
ĠManor
Ġsaturated
rays
ĠDW
ixed
ĠSlovenia
seen
ĠCause
arios
ASE
Ġrend
ĠTBA
Ġlecturer
attering
Ġaffluent
CEO
Ġbreathtaking
ĠGiles
irth
ĠPhilips
Ġposture
ĠTSA
heit
Ġmenace
ricks
ĠAden
ĠReich
iggle
ĠShutterstock
Ġcourageous
edia
Staff
Ġdivert
ĠCir
Ġguessing
apers
ĠBritons
lÃ©
Ġconvened
ĠSerbian
Ġricher
Ġcock
Ġdeposited
company
Ġdelic
sensitive
tank
ĠPatty
mia
onomous
cn
Ġclamp
ĠAcademic
Ġprosecuting
ĠTransparency
Ġdeflation
Ġdashboard
ĠDress
Ġlin
mu
ĠGoodell
Ġlav
ĠTwelve
Ġflavour
Ġfiercely
Ġbloom
ĠHaf
ĠGrad
LET
ĠSeeing
oxide
Ġmenus
char
adoes
combe
Street
ĠRidley
Ġdepicts
ĠPred
ÑĢ
British
Ġbumps
Ġlamp
ĠDesmond
ĠPB
Ġfrag
tin
ĠSharing
Ġdesperation
Ġcommuter
igrants
ĠShapiro
Ġkinda
Ġimpartial
ĠJewel
Ġcongratulations
Ġcompost
Ġadmiration
Ġpaycheck
ĠAnonymous
enger
Mer
ĠGospel
ĠEth
ĠMH
Ġfem
ĠTrial
Ġdepths
ĠApplied
Ġgrit
Ġerase
sid
comm
}
Ġretreated
Ġanalysed
ĠRegular
ĠPesh
ICAL
pei
ĠReilly
ĠTrib
Ġbooths
Ġdrank
Ġcoma
Ġharvested
ĠCHAR
Ġbutterfly
Ġsailed
ĠDrink
eping
ATCH
ĠLegends
Ġinsured
Ġwholes
ĠBis
ĠShea
ighter
Ġsnakes
ĠGunn
ĠPoss
Ġdispar
Ġbombshell
Ġscanning
340
choice
cool
"âĢĶ
ĠTheo
rine
ĠJacques
Ġdisadvantaged
Ġparamount
igate
stat
anski
Ġoutsourcing
Ġpopulous
Ġbinge
ĠOrganic
urban
Ġyogurt
Ġretweet
osen
cially
215
Ġeditions
Ġburgeoning
efully
ĠThousand
Ġreplacements
ĠAmazing
rator
icy
Ġintensify
Sen
ĠQuincy
powers
ĠAur
ĠZion
stal
Ġpillar
ĠErit
ĠPerform
aston
Eric
Ġunh
IFF
950
ĠEngineer
ĠLands
Ġdubious
fy
ĠWI
ĠSv
ĠHendricks
ĠKod
Ġoutlining
ĠCorrespond
amus
worst
arter
coni
Ġhierarchy
ĠTHAT
Ġexce
Ġrailways
Ġmasked
lene
Ġoutset
Ġavalanche
Ġnicknamed
Ġ702
Lee
Ġ139
ĠSixth
365
nda
Ġaccountant
Ġobese
Ġgrape
Ġimpunity
ĠYorkers
Ġguardian
icity
Ġcentrist
Ġwaterways
ursed
Ġhopeless
header
Ġtack
Ġric
umn
Ġvalve
Ġtread
ĠCST
Ġhepatitis
ctor
ĠRED
Ġsolitary
NW
Ġceremonial
Ġfoe
Ġling
Jason
ĠLisbon
Ġ1955
ĠHeller
Ġkin
essen
Ġturbines
shi
Ġlodge
Ġveterinary
ĠBoll
ĠConfederation
ĠJournalists
Ġtug
ĠStarr
Ġpiles
Way
adel
orean
Ġoft
Ġshortcomings
ĠSheila
Ġbackbone
III
ĠDarwin
ĠTunis
Ġsuspicions
Ġdisagreements
Ġ247
illery
'"
Ġsegregation
ohl
Ġinstincts
ĠPoo
nih
parency
uddy
esting
asses
ĠIntroduction
ĠSirius
Local
orous
Ġrehearsal
Ġdemol
Ġtraffickers
Ġupsetting
Ġheir
death
ĠMoments
Los
Ġatmospheric
aints
ĠDianne
Ġlikewise
ĠMing
auga
Ġfirsthand
Ġnarratives
ĠAstron
ĠExtreme
Ġhorns
ĠSana
Ġrecapt
ĠMist
ĠRandolph
connect
Ġindecent
Ġforty
Ġjihadists
azes
Ġdread
Ġgrapes
Ġremoves
Ġscreamed
ĠCrus
ikers
Ġsnapshot
ĠCalls
Cons
Ġlettuce
ĠPig
urable
jured
ILY
ĠJessie
.).
Pay
Tra
----------------
ĠUnits
ĠPlayboy
Ġarthritis
Ġafforded
insk
ĠFake
ĠLies
ĠBaltic
oyal
ĠVest
Ġrusher
Ġincorporates
ĠMM
ĠDru
ĠWare
ĠSammy
ĠGob
ĠRuk
Ġ146
ĠCrowd
Ġduel
irts
Ġsourcing
hp
ĠJava
bred
ĠRefer
Ġuninsured
Ġslope
256
Ġregulating
Ġfundra
Ġinserted
ĠNickel
ĠConsumption
ĠRomo
Atlantic
Ġenclave
Ġpegged
Ġdirects
mbudsman
ĠDES
Ob
Ġlimbs
Ġbury
ILA
Ġstew
Ġbreeze
Ġabrupt
ĠGott
ĠClaude
Ġgenetically
Ġrigid
ĠDudley
ĠNer
registered
Ġentrenched
Ġextortion
ĠNurs
Ġcontingency
etter
Ġrejo
Ġprotagonist
Ġcounselling
ĠVit
aware
ĠMonsanto
GG
Ġincarcerated
Ġabduction
Ġreferencing
Germany
uates
reck
Ġtram
Ġchron
Ġmish
ĠVes
ĠTire
Ġvandal
ĠCrazy
ĠLifetime
ĠSpectrum
celer
Ġmotto
hang
Ġblade
gel
Ġbiography
Ġallegiance
hod
hap
ptic
acle
ĠBlade
ĠBoh
Ġ149
Ġchang
Ġcanned
Ġfacilitated
actor
iologist
Ġrebuilt
Ġawake
Ġmayoral
ĠEuros
Ġdangerously
MK
Ġreplica
Ġcoinc
blog
ĠEra
Ġrelinqu
quite
ondon
rosso
tun
Ġtouchscreen
Ġpops
ousing
efficient
Ġ148
Ġconced
although
Ġ1956
Ġmortar
ĠCave
ĠJung
urer
Ġillusion
ĠBerman
intend
Ġcoping
Dem
tion
estation
ĠSounds
Ġnavigating
Ġsperm
Ġreligions
Ġfol
Ġheroic
FD
Ġhesitant
asure
Ġredeem
Adam
Ġfireplace
vertis
ĠSung
290
iland
ĠUpdates
OTUS
ĠPTSD
Ġhelmets
"?
Ġslashing
Ġscouts
Ġspelling
ĠInitial
draw
Ġchallengers
Ġsupremacists
Ġpilgrims
Ġasc
ĠFill
ĠPau
Ġjewel
ĠMalt
icip
Ġinhabitants
Ġmetre
ahar
Comp
atches
inv
Ġcyclist
ĠQC
Ġmanually
ĠAnchorage
Ġdiscarded
Ġconsolid
Ġnavig
ĠAnimals
ĠPole
esson
Ġ1954
Ġsorted
Ġmadness
ĠBrigade
ĠGenesis
Ġdismissing
ĠPanasonic
Ġdizz
ĠEducational
ĠKO
ĠPill
ĠGIF
Ġbol
Ġwards
Ġcontroversies
Chinese
Ġantics
Ġreliant
ĠMoff
Ġethanol
Ġtorch
rights
ĠHabit
arton
rera
ĠSasha
abella
Ġproliferation
Ġsincerely
communication
ĠNay
ĠChattanooga
ounces
ĠNXT
ĠEmir
Ġmanipulated
Ġharassing
wat
Ġbouts
Book
Ġhovering
ĠScan
ship
ĠAngola
ĠLC
Ġruins
Ġsexist
zar
Ġpledging
ober
Ġembold
Ġobjection
Ġboasting
MIN
Ġherbs
Ġgears
ĠIc
stre
him
Ġhomicides
cki
castle
counter
ĠCAS
ĠReasons
ĠDeclaration
Ġsimplify
Ġfared
Ġescort
Ġkidn
ĠHamm
Ġnailed
Ġaccommodations
Ġmodifications
rible
Ġwool
EDIT
2010
Ġauthentication
Ġgoat
hom
Ġfederally
ĠRath
Ġspiked
Ġmisrepresent
Ġavenue
Ġbroadcasts
ĠEstonia
ennes
ĠMare
ption
ĠKag
Ġcircumstance
orrow
isons
ĠCollabor
Ġstroll
ĠCPS
soft
iral
apo
usky
poke
Ġwoo
ĠElena
ĠLastly
Ġlinemen
Canadian
ĠAnyway
Ġsubstantive
ĠCurt
Ġard
ĠYosh
ĠBuchanan
Ġrevolving
Ġspecials
Ġshrine
Ġlumber
Ġorchestrated
kie
azy
Ġexpiration
ĠDaryl
ĠPatri
better
2020
ĠFav
ĠOP
OTT
Ġflush
ĠSikh
Ġecosystems
ĠBET
eared
audio
ĠFahrenheit
police
Ġincarceration
Ġerupt
ĠDamien
ĠHague
ulz
ĠAgents
ĠBanner
Ġconductor
ĠAjax
arson
Ġrests
Ġeurozone
Ġfelon
Ġcurator
morning
Ġevidenced
ĠNeh
Ġmattress
Ġtast
Ġfueling
ĠOccup
Ġbake
ĠZac
meaning
Ill
ĠHau
ĠLaden
Ġbald
Mary
oky
atri
Ġtracker
OTA
catching
ĠUnderground
ĠHuffPost
ĠAtkins
oglu
Ġauthorised
Ġroutines
ĠHof
veland
Ġlangu
Ġprot
ĠHyd
integ
Ġbravery
Ġviolin
Ġdelightful
Ġticks
iton
Ġreap
Ġoversized
ĠPitch
Ġprized
Ġfusion
fact
acting
Ġfullback
Ġpolite
Ġswear
Ġconfiscated
ĠStud
Ġfielded
rito
covered
financial
bill
HK
OTOS
loaded
Ġmarble
ĠDiplom
.âĢĶ
Ġeats
Ġbackfield
Ġtimeframe
Ġvegetarian
Ġswaps
ĠMines
igor
ĠLenn
ĠDP
ordered
ĠShark
Ġquant
erence
Ġashes
ĠBuckley
ophobia
Ġwarranted
Rose
Ġunreasonable
ĠJav
Ġpalette
Ġjoints
Ġadvent
Ġnoteworthy
ĠNicol
ĠChristensen
Ġplummeted
ayers
Ġdefends
Ġcontended
ĠCongratulations
kish
ĠHannity
Ġgroundwater
ĠKramer
Ġerect
Ġappet
ĠKardash
Ġexacerbated
Ġexplanations
vious
eport
---
icism
ĠNatasha
ĠGeoffrey
estro
Article
Ġincidence
Ġprovoked
elf
Ġinsistence
ĠOUR
Ġfertilizer
Ġstickers
ĠGators
ĠLanding
ĠDON
sta
ĠRobbins
Ġpixels
ĠHoy
imated
ĠÃī
â
Ġsimpl
Other
245
Ġforcibly
'."
Ġsmashing
Ġmosquitoes
Ġpaints
Ġdebating
enty
ĠIB
leaf
ĠDah
Ġreferral
pired
Ġbrunch
gie
Ġvict
ribute
Ġbloggers
Ġgum
ĠAdmiral
France
ĠPK
ĠSaturn
Ġinflated
WAR
Ġscenic
usal
their
Ġcontends
Ġpathways
inis
Ġawarding
Ġmisled
Ġeternal
Ġexaminations
Ġpoker
Ġsafest
Ġchildcare
aday
Ġpreceding
ĠCollective
Ġrespectable
ographical
Ġoak
00000
ĠCorridor
oran
133
Ġmushrooms
gaard
ĠOmega
ĠNaturally
anim
Ġcaptains
Ġtang
Ġlobbyists
ĠSug
Ġsucc
249
ENG
134
Ġsolic
ĠAdded
ĠSuicide
ĠFULL
ĠStrauss
ĠDiesel
Ġtempting
acist
ĠDelivery
Ġquiz
ĠPARK
Ġcollisions
Ġrestrained
purpose
ĠChanges
Ġabsentee
Ġprobes
hib
Ġcul
Ġpetty
Ġnecess
Ġcues
OME
Ġinadvertently
urity
ĠStuff
FG
Ġwrestlers
Ġpaste
ĠRoku
Ġcardboard
aires
Ġvariables
ĠSaras
ĠFif
Ġinvests
ĠDiscover
ĠFix
Thomas
ĠLunch
lv
camera
Step
Ġresumes
ĠSacred
ĠShooting
Ġnoble
Ġslopes
Ġont
Ġtwists
Very
Ġbigotry
ĠTib
Ġmos
Ġwarrior
Ġbroadcasters
Ġubiquitous
ameda
Ġchess
Special
Ġconver
Ġdeleg
endant
Ġfoil
Ġlush
Ġtaxed
Mag
ahs
Ġtablespoons
scription
clamation
ĠCertain
ĠDiversity
Ġhairst
ĠBrewery
Ġshedding
Cla
Ġpenis
ĠMurder
Park
uner
iments
ĠOVER
hus
Ġtabloid
Chart
Ġvouchers
ĠCoord
Ġmethane
ĠFisheries
ĠKham
includes
ĠSuperman
ensed
isure
Amazon
Ġvacated
heet
Ġroast
Ġlegalize
ĠTut
Ġsignage
init
Ġthefts
202
Ġstatic
Ġchants
Bob
Ġdiscretionary
Ġendurance
Ġcollegiate
Ġcorridors
Ġslack
ĠLash
Az
Series
Ġnonpartisan
ĠMcGill
Ġuneven
ulsive
eu
Ġpil
Ġfisheries
Ġonslaught
fiction
holding
Ġcheated
Ġtraumat
lasting
Ġmultitude
ĠThr
ĠBreast
Ġ1600
ĠMatth
Ġdiminish
ĠFTC
Ġgram
ĠResident
Ġfading
Ġmarginalized
ĠLite
ĠCarlton
Ġerad
Welcome
ĠFaw
iddy
Ġparticip
Ġcz
Ġtexted
Ġsuites
ĠForever
Ġrendition
rait
ĠPrague
Ġsponsoring
Ġcompos
ĠBeacon
144
Ġpupil
Ġintricate
Ġathleticism
Ġoptimization
Ġloot
polit
ĠOtt
Whatever
uno
ĠConstable
esville
Ġlookout
ĠAircraft
Ġspo
Ġcorrobor
Ġhiatus
ĠKnowing
ĠHamp
Ġspe
Ġstoring
Ġshakes
uran
Ġsickness
Ġliber
ĠAdministrative
Ġpleasing
ĠEqual
ĠConversation
Ġalgae
Ġlobbyist
ĠHelena
ptions
Ġfaire
ĠGone
ĠWiggins
Robert
Ġlistens
ĠDaisy
Ġsticky
sale
ĠMarijuana
ĠSSD
ĠTool
once
ĠHarmon
mobile
Ġdetain
Money
Ġflawless
forced
Ġguru
Ġairspace
ĠArchie
ĠGender
ĠMeat
abilities
ĠBD
Open
Ġoutsider
issue
Ġlearns
natural
Ġvinegar
ĠSUB
ĠRecon
blers
Ġsniff
Ġsuppression
Ġsaf
urger
Ġbunker
asaki
ĠSpartan
ĠTok
Ġrav
Ġfoc
Sean
etric
Ġballpark
ĠHerb
ĠBM
ĠPublishing
Ġroadmap
pered
Ġpredator
ĠBlockchain
Ġvalidity
ĠGlou
ĠYamaha
Ġadop
Ġswamp
Ġcomplied
Ky
Greg
casts
john
ĠBosnia
Ġcinematic
ĠTavern
Ġfrustrations
eryl
Ġfairy
UNCH
ĠTus
Corp
ĠNug
closed
Ġexercised
urden
Ġdigitally
137
ĠVictims
Ġreluctance
ELL
ĠTribe
chall
Ġwhiskey
ogl
Ġmater
ĠBac
Ġapartheid
ĠMBA
mot
ĠIre
Â®,
ĠChic
Ġtimed
ĠDome
efer
Ġobserver
unky
ĠKant
Ġundrafted
Ġsimplicity
onds
Ġstoked
Ġ1949
Ġransomware
ĠPow
ĠAngelo
ĠAmbrose
adjusted
Guard
138
ĠKaplan
stri
Ġcries
NF
atro
Ġavocado
illian
Ġsculptures
Ġelevation
Ġinspires
Ġgenerals
arb
chell
ĠJournalism
ĠHybrid
ĠCaller
vec
Lu
Ġresemble
bys
erving
antz
Ġwiden
vised
Ev
Ġdiagn
ĠMakes
Ġcer
ĠPats
single
sche
struct
Ġdissolved
Ġtimeout
Ġenhancement
CF
Ġindust
ĠDed
ĠZo
CB
Ġpesticides
ĠRubin
George
opal
Ġmotel
critical
Ġcollapsing
ĠShal
tex
Ġcomplementary
Ġoust
ĠFlu
Ġexporting
Ġdifferential
north
ĠFG
Ġspoon
sha
Ġdismantle
elta
Ġjar
space
Smart
mere
Ð
ĠGillespie
Lo
ĠMead
capacity
ĠIssue
050
ĠVall
Ġdisgr
Ġmeme
Ġpard
Ġcompensated
ĠKet
major
ĠBren
Ġheed
131
Ġcm
Ġdazzling
ĠCheese
Ġmonumental
Ġyielding
Read
Ġgrinding
Ang
Ġdefiance
Ġintimidated
Ġ310
Ġoutsiders
houn
Ma
ĸ
ĠForget
ĠSans
Ġunfolding
ĠSap
ĠLak
Ġsectarian
ĠDaddy
oxy
hitting
Ġdetectors
ĠRee
Ġbroaden
Ġslaying
Ġsuspending
Ġinvestig
Tuesday
Ġantibiotic
ĠShiite
igi
ĠExternal
ĠPhotographer
Ġerratic
NJ
ĠDock
Ġoutweigh
rants
Ġlobster
Ġreactor
Ġunrealistic
ĠAudrey
ĠYor
Anyone
Ġfraught
Ðµ
ĠWester
fc
ĠDunham
ĠLug
allow
139
Ġparity
Ġhorizontal
ijuana
Ġcivilization
ĠGins
Ġsmokers
ĠDiabetes
Five
ĠDG
Ġunderscores
Ġelabor
ĠLub
ĠDevil
Ġ154
ĠGuarant
ĠPandora
Ġexcav
Ġaccuser
Ġrevolt
Ġinstructors
Ġire
ographic
ĠCLE
Ġexpedition
ould
Ġstriving
south
onis
ĠSwed
MY
ĠLevin
Ġcarp
ĠArchitects
Ġ{
Ġcovert
Ġcooled
ĠStaten
Ġspecializing
ĠHazel
Ġlen
ighty
Ġbrilliantly
Phil
Ġlament
Australia
203
Ġticking
Ġadjud
Ġroommate
ĠSheet
capital
167
Ġendeavor
Ġaver
Ġdues
ĠCycl
oried
Va
loading
Ġpremie
Ġregimes
ĠAly
Ġperennial
Ġconsoles
Ġironic
ichael
Ġvigorously
Ġtransmit
gary
eking
Ġjails
ĠEpiscopal
eddy
Ġidle
Ġsafeguards
Ġdwindling
NOR
torn
ĠEvangel
ĠPlastic
ĠTerm
Ġforwarded
avage
Ġrefrigerator
arna
ĠGuinness
ĠCandy
Ġbotched
seller
Ġpul
grades
oshenko
earth
nette
Ġtraps
Ġtarn
Ġmilitar
ĠAriel
Ġtubes
ulo
Water
edin
Ġmarvel
chenko
ĠElk
spect
coe
ĠIllustrated
Ġruthless
etermined
Ġdys
Ġbreaching
gee
Nick
Ġcruiser
Ġciv
Ġdou
Ġ;
deb
ĠAsheville
Ġbiting
Ġyo
Courtesy
Ġroses
ĠConsequently
Ġrevis
Ġconfinement
next
produced
Ġmoratorium
Ġkne
eties
Ġplethora
Ġceleb
FIN
Ġdepartures
ĠWynne
abilia
ĠCourts
olis
Ġcereal
Ġblended
333
ĠLun
Ġrepe
Ġmathematics
Ġpharmacies
Center
Ġwhist
pine
Ġperm
Ġcustomary
Ġhormones
Ġcleansing
Ġconfidentiality
Ġmascot
Ġslippery
Ġmediation
Ġpodcasts
Ġcoating
Ġconveyed
Ġgir
ĠNurse
DM
Ġlured
orted
Ġolig
ritz
ĠINF
Ġtirelessly
Ġdoorstep
Ġtomb
Ġwithholding
irling
Ġhog
Ġ156
Ġgau
chem
raid
Ġtrolls
Ġ182
ĠColumb
Ġtissues
Ġnaive
Ġlect
Central
Sign
168
Ġbribe
ĠDoll
ĠTripoli
Ġfunk
Ġplaza
Ġmechanic
mem
Ġmonkey
grid
Ġtainted
ĠNicaragua
pelling
ĠXia
ammers
Ġorth
ICAN
Ġrant
Ġdiary
ĠHarrington
Ġimply
Qaeda
Ġworsen
Ġcrafting
ĠShir
Ġcoincided
Ġsnatched
ileen
sei
Ġsurgeons
directed
Ġcompulsory
Ġnowadays
ĠLI
ĠRebel
Ġlions
ĠJR
scar
ĠRespons
Ġscroll
ĠErd
iety
";
ĠBone
ĠRumble
ĠKS
ĠLaur
kell
ĠBirds
agic
Ġsimmer
Ġrunaway
Ġ162
auna
Ġdialog
Ġlouder
esque
RR
Ġbloss
Ġcaliber
nery
Ġhauled
Ġbacterial
ĠVanity
ĠPrograms
omew
ĠMama
Ġarr
Ġdod
ĠJarvis
ĠFIRST
Ġinjections
ĠBallard
Ġmedically
angan
ĠNewfoundland
Ġfracking
Ġbast
outing
Ġmercury
Ġwatershed
ĠAmateur
Ġ153
escal
Ġpainter
creat
Ġperceive
Ġgent
attacks
worked
Ġimporting
Indian
Ġconvict
clad
Ġbudding
Ġambient
ĠWitness
letes
Ġbuffet
Ġneedles
Ġcoding
Ġchoke
Ġcorrespondence
Ġgods
Ġdances
Ġsteadfast
cert
Ġroaming
between
weak
Jer
jandro
Ġdiscouraged
Ġfruition
ĠØ
ĠKop
ULL
efe
imble
obb
ulla
Ġaccredited
Ġlectures
bil
why
Ġgreeting
ĠBoost
Ġmailed
Ġtroop
Ġfrig
Ġrese
Ġscratched
Stars
ĠRailroad
ĠIdol
Ġsuccumbed
ĠWeeks
ffe
Ġjihadist
ITION
Ġthreads
ĠGenerally
Ġmedieval
Ġquotas
ĠFerry
rique
Ġprod
ĠEduc
rive
Ġensued
Cy
Ġinfring
Ġprank
Ġfrontline
Ġcompletes
upe
Ġmanageable
Ġpoems
otten
igne
threat
ĠDri
ĠLINK
Calif
ĠDos
ulent
Ġaids
Ġslips
umped
Ġstyled
Ġdisproportionately
ĠDish
ĠUncle
andel
Ġrecharge
rators
ĠSPR
Ġguarded
ĠGreatest
ĠSkills
ĠNob
ĠDesk
ĠCros
Ġwrit
Ġquery
ORTS
Ġbundled
Ġgib
Ġeth
iesta
Ġevade
dict
straight
Met
present
Ġdiff
Ġdere
ĠSpl
Ġrepr
ĠBeard
Ġvain
Ġappointing
ĠVisual
caps
gado
ĠRican
ĠPose
endor
Ġ222
ĠLear
Ġconstructing
Dan
ĠSpears
ĠTherapy
pta
Ġrehabilit
Ġrisked
ĠGuer
HF
Ġ301
Ġliking
Ġmodular
eree
ĠMAT
ĠHomeless
Ġstove
erd
hash
ĠAchilles
ĠBeta
Ġincl
Ġgunned
ĠCrab
ĠMara
Ġinvaded
ulatory
ATA
angering
onso
Ġallocate
Ġgarment
itudes
ĠHuang
Ġstaples
ĠAlban
Ġtrough
Ġupright
tie
Ġexploits
ĠVaughan
ĠDarrell
Ġassortment
ĠChill
Ġlearners
aqu
Ġexplode
ĠChong
bt
opl
Ġaltern
Ġ151
fur
ULT
HOU
ĠMemory
Ġboosts
ynes
priv
Ġtimeless
Ġcurtail
ĠCary
ĠHud
Ġexclus
Ġ275
Ġfry
ĠVera
Ġdefied
ĠDust
Ġenvision
ĠPhilipp
Ġenhancements
ĠLIB
ggy
ĠAzure
esis
Ġcharismatic
Ġcoincide
inged
ĠChoose
Ġsizeable
136
Ġpronounce
ĠPositive
Ġideally
Ġechoes
Ġcottage
Ġencrypted
Prime
Ġá
Ġflashes
Group
Ġ501
heat
atility
ĠTesting
pex
WT
154
annah
Ġcompromising
Ġinactive
Ġdisparity
Ġgruesome
ĠFeather
ĠMandal
Ġthereof
ĠProducer
Ġprofiling
Ġlogistical
Ġcornerstone
ĠClaudia
Congress
ĠDill
ophone
Ġcameo
ĠCutler
Ġcraz
throw
ĠKasich
Ġexploiting
ĠSeas
agles
ĠGeological
ĠStub
ĠUps
MER
Ġmem
itution
Ġunderstandably
Ġcontractual
warming
qi
Sky
whelming
Ġcurse
ĠAren
Ġ265
ĠGree
Ġpresiding
Works
stones
Ġappalling
plex
dj
aunting
Ġimag
Ġsexism
ĠVert
ĠRag
ĠBliss
posium
div
Ġexperimenting
Ass
Lago
worthiness
ĠBerk
ĠDisneyland
Ġexaggerated
iliation
ĠFP
Ġprincipals
Miami
ropri
PLE
iona
ĠPokemon
apse
Ġbubbles
INC
ĠCaps
ĠBrowne
sing
ĠcafÃ©
Ġceilings
frame
ĠIrwin
ATS
dated
Ġprotester
Ġtaps
ĠOslo
Ù
Ġconcentrations
Ġdistributions
Ġglucose
ĠRudolph
Ġtowels
Ġâĸº
Ġneighbourhoods
Ġinduction
Ġglaring
Ġannexation
Ġunsustainable
ĠTend
Ġthumbs
iegel
cript
gor
closure
thought
Ġpaddle
Ġemulate
Ġdiameter
Ġtailor
ĠCorpor
icable
ĠPrin
Ġadminister
ĠJudd
ĠColleg
aund
ĠPond
ĠNOTE
Ġcombating
Ġinvention
ĠOculus
ĠRepl
iscal
Ġtrilogy
anian
ATT
ĠCoke
DL
ĠLup
living
Ġadvertise
ĠConnie
amping
Ġsung
ORY
ĠTet
Ġsplits
Ġreconnect
Ġlou
mut
ulator
Ġstrap
Ġswallow
rote
Ġexec
ffen
ĠCombine
ĠTreat
Ġsorrow
ĠNotably
ĠSever
rette
Ġwherein
Ġtransitioning
Ġtrout
Ġcockpit
Ġcrawl
Ġferv
Ġliquids
Ġtsp
atell
Ġmeasles
Ġjug
Ac
ĠKD
ĠMoose
Ġvans
chain
ĠPapua
plet
Wednesday
lynn
chery
budget
Tony
ĠBacon
Ġstirred
ĠSpecialist
Ġcounterfeit
Ð°
Ġdifferentiate
Ġmuscular
ĠTheodore
Ġlooms
ĠXX
ottage
Ġbenches
ĠMunicip
Po
ĠHeck
Ġscars
ĠNim
ÙĬ
ĠIngredients
Ġecological
ĠAWS
Ġdispose
Ġmattered
Ġ720
Ġpatriotism
ĠGrind
Ġcurved
opia
ĠLiqu
Ġevangelical
tto
ĠMaterial
ĠShowtime
ĠBS
Ġcheckpoints
Ġcrippling
ĠBalance
stress
bearing
Ġ216
ĠGuards
Ġlinebackers
Ġoffending
Ġsands
umbnail
atorial
Ġliberties
ĠGW
ĠPulitzer
ĠAlvin
ĠFAC
ĠStrategies
Ġreiter
ĠRestaur
ĠLithuania
ĠSwanson
terror
ĠMaurit
Ġparadise
zzle
owment
ĠWP
Ġsodium
Ġfuturistic
Ġdots
Anthony
Though
Ġstripes
Ġorig
ultz
Ġ340
KK
umer
ivery
Ġplacebo
Ġdemocrat
Ġsubmerged
ĠHidden
pieces
Ġasteroid
ĠGraphic
Ġadvert
sil
Ġdreaming
Ġnationality
Ġfostering
daughter
ĠSavings
Ġmischief
ĠClair
ĠBundy
Ġblatant
Ġtabs
qa
severe
attered
Ġgreed
Ġresembles
Ġnominal
Ġineligible
wealth
fax
payers
Ġdisplacement
itute
Ġunpleasant
ĠPom
lif
edo
ĠNP
Inter
Ġcohort
ĠStacy
ĠDai
Ġhistories
alin
273
Ġdram
ĠKand
Ġexpectancy
ansson
Ġlimbo
ĠPolar
Ġdivine
oused
Ġshel
ĠProblem
achment
Ġâĸł
shoot
antam
ĠHerz
Ġ157
Ġpreventive
keye
Sing
Ġcharacteristic
Ġcasually
ĠTaiwanese
md
ĠHubbard
imon
Ġsect
148
Ġmartyr
stud
Ġcongrat
ĠSWAT
ĠTheory
INAL
opping
ply
ĠKindle
uu
ĠLith
kaya
ĠActivity
uously
ĠJeb
tell
ĠSpin
ĠExplorer
Ġfolded
ĠCanterbury
ĠStur
Ġminiature
Ġmultif
ĠPressure
angling
ĠOverse
Ġresides
Ġimpressions
Ġauthored
265
Ġallergies
143
ĠJi
Ġsticker
ĠAccord
Ġcaste
Ġseparates
ĠFein
Daily
179
ĠScores
ĠAuction
hea
Ġdisclosing
ĠTacoma
Ġverse
ĠBeg
Ġfabrics
aez
Ġattachment
isy
Christ
Ġaddictive
Ġvir
Week
ĠPlum
croft
itivity
ĠExhibition
Ġbruised
Ġmimic
rers
Ġanal
Ġunintended
Ġpall
atts
ĠWarn
Ġslows
WH
Ġembro
nec
Ġ168
285
ologic
Ġhob
ĠPeel
Mill
eps
Ġrobbers
ĠDahl
semble
omics
toe
ĠLoch
Ġreproduction
ĠCullen
Ġimplants
Ġwow
ĠSTATE
vt
Ġdepleted
Ġbreweries
Ġhateful
Ġgast
Ġhollow
Ġradically
ographed
ĠFog
onian
ĠSequ
Ġdisrespectful
Dis
ĠExper
pron
ĠAmelia
ĠSage
bath
Ġtransformative
Ġtremendously
Ġpillow
ĠNormal
Cont
ĠMedic
educated
Ġredesigned
Ġkneeling
Ġinh
Ġroofs
Ġhandmade
Ġprotracted
ĠIsn
ĠCapacity
Ġsquash
ĠVega
Ġfats
ĠCertified
ointed
Ġpricey
ĠBasil
Ġfreezer
Ġscent
Ġpizz
ĠArd
Ġdistractions
Ġviolently
ĠHess
Ġfunc
Ġundert
Ġrejuven
Ġdisbelief
cluded
named
ĠFailure
kus
Ġhostages
ĠSahara
Ġ1944
Leary
ĠPrel
enza
ĠAlly
ĠKak
Ġcounselors
ĠGale
ĠHok
ĠSold
Ġhacker
Ġhun
Ġbung
Ġdeclares
Ġinfringement
OOD
Ġdoub
jam
Ġallergy
ĠShipping
Ġmedic
Ġaccommod
Ġdocumenting
Ġcompanions
Ġmodelling
Ġcarriage
ĠCherokee
Ġtresp
Ġtaxable
ĠActivities
ĠCrane
bots
ĠRusso
Ġstocked
ervation
Ġcoffin
aign
guards
Ġonwards
Ġfrank
.*
unic
Ġcens
enic
ruit
rained
Ġadapting
aments
Ġstagnant
azaar
ĠHarlem
Ġ158
ysis
Ġbraking
Ġdipping
Ġclan
ĠShu
Ġprops
qualified
Ġmistakenly
ĠStalin
Ġaddicts
ĠCALL
ropolis
aten
pec
ĠDro
ĠFellowship
ĠSupporting
loc
uben
499
Bro
Ġpots
Ġchunks
wr
ĠColonial
ĠArchitecture
Ġconstrained
Ġenvelop
ĠIronically
aban
Ġapparatus
Ġcue
Ġborne
ĠRoz
ilton
Ġtheoretical
ĠWatching
Ġfuck
ĠSilk
ĠSTE
bler
ĠPOST
ĠUpton
Ġsummons
ĠCum
ĠKL
Ġrelaxation
ĠDuff
Ġincumb
ĠRedd
Ġstature
Ġcanv
added
Ġremedies
ĠISO
ĠDecker
Ġafloat
Ġstartling
ĠBethlehem
Ġrealizes
find
ĠAra
Ġphased
arov
Ġhalting
ĠWindow
Ġdentist
Ġtumble
Ġvalidation
Ġcarve
ĠIPS
Ġirrit
ĠEssential
Ġfluids
rons
Ġimplant
Ġnuisance
ĠShelley
ĠGemini
Ġpharmac
iction
Ġtaped
ĠGovernments
ruly
Ġscant
Ġprominently
Ġreim
unning
arted
ĠMatters
Ġ1918
ĠPros
atel
ĠBattalion
onduct
talk
ĠTinder
ĠInstant
ĠKern
Ġbuckets
ĠGroups
Ġmetaphor
cloud
ĠString
Ohio
Ġcaffeine
Old
Ġdefinite
ĠNikola
ĠLords
icol
)?
Ġenjoyment
Ġfamine
Ġdefinitions
ĠJem
Check
Ġaiding
ĠMÃ©
Ġrenewables
Ġsightings
footed
Box
Ġgoats
Ġshack
AX
ĠMonk
ĠGraduate
Ġmeats
handle
147
rys
Ġunsub
Pont
uble
440
Ġeyel
thro
Ġcreep
^^^^
Ġpopcorn
Ġcompression
sal
ouf
Ġrepairing
Think
Ġdoubtful
ĠLooks
Ġtaller
Ġsul
sf
give
ĠGau
Ġrevered
EMBER
Ġsloppy
ersen
Ġvitamins
ĠImprovement
Ġprogresses
Ġdiploma
semb
ustain
Ġchant
Ġbumped
Ġsabotage
nant
Ġrabbit
Ġdividing
ĠDefender
Ġlik
Ġirrespective
cade
ĠSter
touch
EMA
Ġparted
ĠBAR
hung
Ġannoyed
Ġhinder
Ġexamines
oan
ĠBoe
Ġaggreg
ĠChu
ĠUCS
IGHTS
pez
ĠUNESCO
Ġwindshield
Martin
Ġwithhold
does
Ġbruising
Ġdeterior
bourg
ĠTowers
JD
England
Ġequivalents
Ġrazor
Ġreassuring
Ġident
Ġ208
reath
ceans
Ġpatrolling
eve
pots
itative
Ġsided
Ġsofa
Ġunborn
Ġaug
Ġperpetual
effect
represented
Ġrails
ĠSummers
ĠMOR
ĠSlow
ĠExpert
Ġshameful
Ġaudits
Sl
ĠBurr
adow
ĠWAY
anic
ĠIslamists
ĠStranger
pse
amaz
ĠPeggy
ĠSeventh
Ġscreenplay
ĠGriff
Ireland
142
Ġneural
ĠFernand
ainment
ĠMigration
ureen
ĠSCH
Sullivan
ĠWag
ĠREG
Ġ420
inky
ĠNewspaper
School
Ok
ĠKrishna
Ġ480
erald
Ġskipping
Ġharrowing
158
rogen
Ġbetrayal
Ġculmination
ĠCirc
Ġ211
stro
ĠTrace
Ġheaviest
td
ĠHenri
epend
RB
arella
umbai
Ġcrem
ĠDistribut
ruff
Ġscreams
Ġscathing
girls
Ġtiles
ĠEvil
usp
Ġknowledgeable
Ġrestitution
ĠWiFi
Ġitiner
exper
oris
ĠPokÃ©mon
iane
produ
ĠAchievement
Ġbrunt
ĠSurgery
Ġpragmatic
Ber
ĠKejriwal
cus
Ġconsensual
acet
ĠSecondly
Ġdivul
uca
Ġbusted
emies
ĠMou
Ġ217
Ġexcludes
ĠSamoa
Ġlofty
ĠSic
ĠRemem
dn
Ġeradicate
Ġpies
Ġscenery
ATTLE
ĠWAS
Ġinnovate
ĠEverest
Ġsynonymous
izen
Ġeuth
ĠFIA
ITIES
ĠSuddenly
Ġforay
pell
ÄŁ
licensed
Ġfra
Ġblasting
autical
ĠBlizzard
orer
Ġchili
ĠSylvia
except
tec
ĠResistance
young
usions
iotic
ĠDreams
ĠArchives
Ġunleash
ĠPract
Ġlikened
Ġga
Ġdisappearing
Ġunnoticed
Ġfrightened
arms
ĠCAD
Ġcoloured
ĠSigns
oing
Ġvodka
ruption
otions
isal
ĠBecome
Ġswoop
reating
Ġchoking
Ġunforgettable
258
packs
345
ĠAutumn
Ġther
399
ĠFaculty
Ġ1933
ĠNormally
orge
ĠTess
ĠChrom
[...]
